{
  "version": "1.0",
  "truncation": null,
  "padding": null,
  "added_tokens": [
    {
      "id": 0,
      "content": "[UNK]",
      "single_word": false,
      "lstrip": false,
      "rstrip": false,
      "normalized": false,
      "special": true
    },
    {
      "id": 1,
      "content": "[PAD]",
      "single_word": false,
      "lstrip": false,
      "rstrip": false,
      "normalized": false,
      "special": true
    },
    {
      "id": 2,
      "content": "[CLS]",
      "single_word": false,
      "lstrip": false,
      "rstrip": false,
      "normalized": false,
      "special": true
    },
    {
      "id": 3,
      "content": "[SEP]",
      "single_word": false,
      "lstrip": false,
      "rstrip": false,
      "normalized": false,
      "special": true
    },
    {
      "id": 4,
      "content": "[MASK]",
      "single_word": false,
      "lstrip": false,
      "rstrip": false,
      "normalized": false,
      "special": true
    }
  ],
  "normalizer": null,
  "pre_tokenizer": {
    "type": "Whitespace"
  },
  "post_processor": null,
  "decoder": null,
  "model": {
    "type": "BPE",
    "dropout": null,
    "unk_token": "[UNK]",
    "continuing_subword_prefix": null,
    "end_of_word_suffix": null,
    "fuse_unk": false,
    "byte_fallback": false,
    "ignore_merges": false,
    "vocab": {
      "[UNK]": 0,
      "[PAD]": 1,
      "[CLS]": 2,
      "[SEP]": 3,
      "[MASK]": 4,
      "\u001e": 5,
      "!": 6,
      "\"": 7,
      "#": 8,
      "$": 9,
      "%": 10,
      "&": 11,
      "'": 12,
      "(": 13,
      ")": 14,
      "*": 15,
      "+": 16,
      ",": 17,
      "-": 18,
      ".": 19,
      "/": 20,
      "0": 21,
      "1": 22,
      "2": 23,
      "3": 24,
      "4": 25,
      "5": 26,
      "6": 27,
      "7": 28,
      "8": 29,
      "9": 30,
      ":": 31,
      ";": 32,
      "<": 33,
      "=": 34,
      ">": 35,
      "?": 36,
      "@": 37,
      "A": 38,
      "B": 39,
      "C": 40,
      "D": 41,
      "E": 42,
      "F": 43,
      "G": 44,
      "H": 45,
      "I": 46,
      "J": 47,
      "K": 48,
      "L": 49,
      "M": 50,
      "N": 51,
      "O": 52,
      "P": 53,
      "Q": 54,
      "R": 55,
      "S": 56,
      "T": 57,
      "U": 58,
      "V": 59,
      "W": 60,
      "X": 61,
      "Y": 62,
      "Z": 63,
      "[": 64,
      "\\": 65,
      "]": 66,
      "^": 67,
      "_": 68,
      "`": 69,
      "a": 70,
      "b": 71,
      "c": 72,
      "d": 73,
      "e": 74,
      "f": 75,
      "g": 76,
      "h": 77,
      "i": 78,
      "j": 79,
      "k": 80,
      "l": 81,
      "m": 82,
      "n": 83,
      "o": 84,
      "p": 85,
      "q": 86,
      "r": 87,
      "s": 88,
      "t": 89,
      "u": 90,
      "v": 91,
      "w": 92,
      "x": 93,
      "y": 94,
      "z": 95,
      "{": 96,
      "|": 97,
      "}": 98,
      "~": 99,
      "£": 100,
      "§": 101,
      "©": 102,
      "«": 103,
      "¯": 104,
      "°": 105,
      "±": 106,
      "²": 107,
      "´": 108,
      "µ": 109,
      "·": 110,
      "º": 111,
      "»": 112,
      "¿": 113,
      "À": 114,
      "Ã": 115,
      "Ä": 116,
      "×": 117,
      "ß": 118,
      "à": 119,
      "á": 120,
      "â": 121,
      "ã": 122,
      "ä": 123,
      "å": 124,
      "æ": 125,
      "ç": 126,
      "è": 127,
      "é": 128,
      "ê": 129,
      "ë": 130,
      "ì": 131,
      "í": 132,
      "î": 133,
      "ï": 134,
      "ñ": 135,
      "ò": 136,
      "ó": 137,
      "ô": 138,
      "õ": 139,
      "ö": 140,
      "ø": 141,
      "ù": 142,
      "ú": 143,
      "û": 144,
      "ü": 145,
      "ý": 146,
      "ÿ": 147,
      "ą": 148,
      "ć": 149,
      "ı": 150,
      "ł": 151,
      "ń": 152,
      "ő": 153,
      "ř": 154,
      "ś": 155,
      "š": 156,
      "ť": 157,
      "ū": 158,
      "̀": 159,
      "́": 160,
      "ά": 161,
      "ή": 162,
      "α": 163,
      "γ": 164,
      "δ": 165,
      "ε": 166,
      "ι": 167,
      "κ": 168,
      "λ": 169,
      "μ": 170,
      "ο": 171,
      "π": 172,
      "ρ": 173,
      "χ": 174,
      "В": 175,
      "И": 176,
      "М": 177,
      "Н": 178,
      "С": 179,
      "а": 180,
      "б": 181,
      "в": 182,
      "г": 183,
      "д": 184,
      "е": 185,
      "з": 186,
      "и": 187,
      "й": 188,
      "к": 189,
      "л": 190,
      "м": 191,
      "н": 192,
      "о": 193,
      "п": 194,
      "р": 195,
      "с": 196,
      "т": 197,
      "у": 198,
      "ф": 199,
      "х": 200,
      "ч": 201,
      "ш": 202,
      "щ": 203,
      "ы": 204,
      "ь": 205,
      "ю": 206,
      "я": 207,
      "ְ": 208,
      "ָ": 209,
      "ֻ": 210,
      "א": 211,
      "ב": 212,
      "ג": 213,
      "ד": 214,
      "ו": 215,
      "י": 216,
      "ל": 217,
      "ם": 218,
      "ע": 219,
      "ש": 220,
      "إ": 221,
      "ا": 222,
      "د": 223,
      "م": 224,
      "ن": 225,
      "ه": 226,
      "و": 227,
      "ی": 228,
      "‍": 229,
      "‎": 230,
      "–": 231,
      "—": 232,
      "‘": 233,
      "’": 234,
      "“": 235,
      "”": 236,
      "…": 237,
      "₂": 238,
      "€": 239,
      "⃣": 240,
      "ℓ": 241,
      "№": 242,
      "™": 243,
      "←": 244,
      "→": 245,
      "↻": 246,
      "∂": 247,
      "∆": 248,
      "∑": 249,
      "∞": 250,
      "∠": 251,
      "≪": 252,
      "⊲": 253,
      "⊳": 254,
      "⏪": 255,
      "─": 256,
      "━": 257,
      "│": 258,
      "└": 259,
      "├": 260,
      "╸": 261,
      "█": 262,
      "▋": 263,
      "☃": 264,
      "☕": 265,
      "☹": 266,
      "☺": 267,
      "♀": 268,
      "♂": 269,
      "♻": 270,
      "⚒": 271,
      "⚙": 272,
      "⚠": 273,
      "⚡": 274,
      "⚰": 275,
      "⚾": 276,
      "✅": 277,
      "✏": 278,
      "✓": 279,
      "✔": 280,
      "✗": 281,
      "✨": 282,
      "❌": 283,
      "❤": 284,
      "➕": 285,
      "➖": 286,
      "⬆": 287,
      "⬇": 288,
      "ィ": 289,
      "ェ": 290,
      "ク": 291,
      "ジ": 292,
      "ッ": 293,
      "ツ": 294,
      "デ": 295,
      "ト": 296,
      "ニ": 297,
      "ピ": 298,
      "リ": 299,
      "レ": 300,
      "ー": 301,
      "ㄒ": 302,
      "丨": 303,
      "丰": 304,
      "乂": 305,
      "乇": 306,
      "匚": 307,
      "卂": 308,
      "卄": 309,
      "卡": 310,
      "史": 311,
      "叶": 312,
      "合": 313,
      "吴": 314,
      "嘣": 315,
      "定": 316,
      "尺": 317,
      "快": 318,
      "整": 319,
      "日": 320,
      "明": 321,
      "昔": 322,
      "本": 323,
      "测": 324,
      "火": 325,
      "焕": 326,
      "筆": 327,
      "腿": 328,
      "記": 329,
      "語": 330,
      "试": 331,
      "贞": 332,
      "赵": 333,
      "速": 334,
      "雲": 335,
      "거": 336,
      "니": 337,
      "드": 338,
      "령": 339,
      "리": 340,
      "명": 341,
      "버": 342,
      "션": 343,
      "애": 344,
      "어": 345,
      "유": 346,
      "이": 347,
      "케": 348,
      "코": 349,
      "플": 350,
      "햄": 351,
      "️": 352,
      "＄": 353,
      "：": 354,
      "￼": 355,
      "�": 356,
      "🇦": 357,
      "🇱": 358,
      "🇵": 359,
      "🇺": 360,
      "🉐": 361,
      "🌀": 362,
      "🌐": 363,
      "🍰": 364,
      "🍱": 365,
      "🎉": 366,
      "🎨": 367,
      "🏷": 368,
      "🏻": 369,
      "🐛": 370,
      "🐢": 371,
      "🐳": 372,
      "👀": 373,
      "👍": 374,
      "👥": 375,
      "👷": 376,
      "👽": 377,
      "💄": 378,
      "💅": 379,
      "💚": 380,
      "💡": 381,
      "💥": 382,
      "💬": 383,
      "💸": 384,
      "📄": 385,
      "📌": 386,
      "📚": 387,
      "📝": 388,
      "📦": 389,
      "📱": 390,
      "🔀": 391,
      "🔇": 392,
      "🔊": 393,
      "🔐": 394,
      "🔒": 395,
      "🔖": 396,
      "🔠": 397,
      "🔥": 398,
      "🔧": 399,
      "🔨": 400,
      "🕙": 401,
      "🗑": 402,
      "😄": 403,
      "😅": 404,
      "😉": 405,
      "😊": 406,
      "😎": 407,
      "😔": 408,
      "😱": 409,
      "🙇": 410,
      "🙈": 411,
      "🚀": 412,
      "🚑": 413,
      "🚚": 414,
      "🚨": 415,
      "🚸": 416,
      "🛠": 417,
      "🤓": 418,
      "🤔": 419,
      "🤖": 420,
      "🤪": 421,
      "🤯": 422,
      "🤷": 423,
      "🥉": 424,
      "🥳": 425,
      "🦲": 426,
      "🧪": 427,
      "🩺": 428,
      "🪥": 429,
      "es": 430,
      "in": 431,
      "er": 432,
      "on": 433,
      "at": 434,
      "or": 435,
      "re": 436,
      "ar": 437,
      "th": 438,
      "se": 439,
      "an": 440,
      "al": 441,
      "en": 442,
      "st": 443,
      "est": 444,
      "de": 445,
      "le": 446,
      "as": 447,
      "ion": 448,
      "it": 449,
      "om": 450,
      "am": 451,
      "ed": 452,
      "is": 453,
      "--": 454,
      "ing": 455,
      "test": 456,
      "ct": 457,
      "the": 458,
      "ass": 459,
      "im": 460,
      "ch": 461,
      "ra": 462,
      "ut": 463,
      "et": 464,
      "==": 465,
      "py": 466,
      "for": 467,
      "lo": 468,
      "to": 469,
      "res": 470,
      "fi": 471,
      "pe": 472,
      "\",": 473,
      "ent": 474,
      "ro": 475,
      "and": 476,
      "ul": 477,
      "cl": 478,
      "pl": 479,
      "dat": 480,
      "\"\"": 481,
      "\":": 482,
      "ce": 483,
      "un": 484,
      "co": 485,
      "ot": 486,
      "_s": 487,
      "di": 488,
      "ri": 489,
      "par": 490,
      "com": 491,
      "def": 492,
      "of": 493,
      "ex": 494,
      "ur": 495,
      "el": 496,
      "ort": 497,
      "ma": 498,
      "qu": 499,
      "ert": 500,
      "ith": 501,
      "):": 502,
      "port": 503,
      "con": 504,
      "sel": 505,
      "fr": 506,
      "ab": 507,
      "il": 508,
      "ge": 509,
      "----": 510,
      "ue": 511,
      "pytest": 512,
      "one": 513,
      "self": 514,
      "ck": 515,
      "mo": 516,
      "from": 517,
      "um": 518,
      "ad": 519,
      "ation": 520,
      "ig": 521,
      "pre": 522,
      "assert": 523,
      "do": 524,
      "ty": 525,
      "n_": 526,
      "val": 527,
      "ve": 528,
      "tr": 529,
      "ap": 530,
      "ver": 531,
      "if": 532,
      "up": 533,
      "arn": 534,
      "None": 535,
      "ult": 536,
      "ht": 537,
      "int": 538,
      "not": 539,
      "li": 540,
      "nam": 541,
      "ray": 542,
      "ate": 543,
      "()": 544,
      "all": 545,
      "import": 546,
      "class": 547,
      "param": 548,
      "array": 549,
      "pro": 550,
      "(\"": 551,
      "ction": 552,
      "np": 553,
      "\"\"\"": 554,
      "us": 555,
      "pt": 556,
      "],": 557,
      "fe": 558,
      "\")": 559,
      "with": 560,
      "ol": 561,
      "str": 562,
      "pon": 563,
      "ore": 564,
      "data": 565,
      "em": 566,
      "get": 567,
      "pat": 568,
      "ke": 569,
      "sh": 570,
      "type": 571,
      "====": 572,
      "ror": 573,
      "ure": 574,
      "ple": 575,
      "ic": 576,
      "id": 577,
      "ret": 578,
      "test_": 579,
      "we": 580,
      "lin": 581,
      "ub": 582,
      "ers": 583,
      "requ": 584,
      "urn": 585,
      "fit": 586,
      "set": 587,
      "y_": 588,
      "(#": 589,
      "doc": 590,
      "ator": 591,
      "feat": 592,
      "sc": 593,
      "be": 594,
      "),": 595,
      "form": 596,
      "sion": 597,
      "ne": 598,
      "by": 599,
      "ampl": 600,
      "ans": 601,
      "name": 602,
      "he": 603,
      "out": 604,
      "amples": 605,
      "ase": 606,
      "put": 607,
      "fix": 608,
      "Re": 609,
      "me": 610,
      "pen": 611,
      "s_": 612,
      "return": 613,
      "po": 614,
      "che": 615,
      "learn": 616,
      "iz": 617,
      "pa": 618,
      "no": 619,
      "__": 620,
      "imator": 621,
      "date": 622,
      "andom": 623,
      "ures": 624,
      "path": 625,
      "ces": 626,
      "wh": 627,
      "request": 628,
      "ight": 629,
      "sk": 630,
      "=\"": 631,
      "ample": 632,
      "Tr": 633,
      "mat": 634,
      "au": 635,
      "ter": 636,
      "ponse": 637,
      "},": 638,
      "00": 639,
      "ption": 640,
      "bo": 641,
      "del": 642,
      "tra": 643,
      "fa": 644,
      "..": 645,
      "estimator": 646,
      "``": 647,
      "cont": 648,
      "random": 649,
      "paramet": 650,
      "fun": 651,
      "features": 652,
      "vi": 653,
      "ifi": 654,
      "weight": 655,
      "ly": 656,
      "that": 657,
      "ps": 658,
      "##": 659,
      "ape": 660,
      "rror": 661,
      "d_": 662,
      "True": 663,
      "trans": 664,
      "mar": 665,
      "Error": 666,
      "X_": 667,
      "use": 668,
      "response": 669,
      "ag": 670,
      "Co": 671,
      "[\"": 672,
      "--------": 673,
      "ull": 674,
      "dict": 675,
      "ob": 676,
      "_samples": 677,
      "ix": 678,
      "abel": 679,
      "])": 680,
      "ance": 681,
      "ust": 682,
      "erge": 683,
      "check": 684,
      "arg": 685,
      "age": 686,
      "pend": 687,
      "parse": 688,
      "are": 689,
      "_st": 690,
      "ithub": 691,
      "Merge": 692,
      "github": 693,
      "per": 694,
      "ext": 695,
      "col": 696,
      "thor": 697,
      "line": 698,
      "od": 699,
      "ents": 700,
      "defa": 701,
      "default": 702,
      "model": 703,
      "ed_": 704,
      "The": 705,
      "shape": 706,
      "num": 707,
      "{\"": 708,
      ">>": 709,
      "met": 710,
      "========": 711,
      "ise": 712,
      "sklearn": 713,
      "label": 714,
      "ba": 715,
      "ran": 716,
      "able": 717,
      "Up": 718,
      "->": 719,
      "_sc": 720,
      "_in": 721,
      "log": 722,
      "Ad": 723,
      ").": 724,
      "ded": 725,
      "arning": 726,
      "error": 727,
      "result": 728,
      "n_samples": 729,
      "mark": 730,
      "max": 731,
      "ive": 732,
      "10": 733,
      "author": 734,
      "alse": 735,
      "ci": 736,
      "gres": 737,
      "ug": 738,
      "iter": 739,
      "pr": 740,
      "ph": 741,
      "ist": 742,
      "pull": 743,
      "iss": 744,
      "min": 745,
      "ast": 746,
      "ues": 747,
      "authored": 748,
      "code": 749,
      "item": 750,
      "Fix": 751,
      "False": 752,
      "call": 753,
      "ax": 754,
      "htt": 755,
      "Update": 756,
      "//": 757,
      "ss": 758,
      "meth": 759,
      "fig": 760,
      "dtype": 761,
      "DO": 762,
      "ated": 763,
      "transform": 764,
      "fo": 765,
      "file": 766,
      "du": 767,
      "der": 768,
      "app": 769,
      "sample": 770,
      "_weight": 771,
      "train": 772,
      "depend": 773,
      "comm": 774,
      "idat": 775,
      "ect": 776,
      "version": 777,
      "():": 778,
      "://": 779,
      "names": 780,
      "ip": 781,
      "assert_": 782,
      "so": 783,
      "ial": 784,
      "))": 785,
      "pect": 786,
      "function": 787,
      "inst": 788,
      "docs": 789,
      "ize": 790,
      "value": 791,
      "get_": 792,
      "make": 793,
      "but": 794,
      "list": 795,
      "pytester": 796,
      "method": 797,
      "DOC": 798,
      "ity": 799,
      "Val": 800,
      "cli": 801,
      "ain": 802,
      "ef": 803,
      "In": 804,
      "des": 805,
      "idation": 806,
      "_c": 807,
      "Th": 808,
      "https": 809,
      "_state": 810,
      "lot": 811,
      "equ": 812,
      "string": 813,
      "values": 814,
      "_t": 815,
      "random_state": 816,
      "obj": 817,
      "Add": 818,
      "ff": 819,
      "ric": 820,
      "ant": 821,
      "var": 822,
      "flo": 823,
      "lease": 824,
      "ctor": 825,
      "init": 826,
      "predict": 827,
      "ill": 828,
      "Cl": 829,
      "n_features": 830,
      "sci": 831,
      "ree": 832,
      "ture": 833,
      "ess": 834,
      "ho": 835,
      "add": 836,
      "ign": 837,
      "sv": 838,
      "this": 839,
      "prec": 840,
      "plot": 841,
      "match": 842,
      ":`": 843,
      "ifier": 844,
      "config": 845,
      "sup": 846,
      "params": 847,
      "Test": 848,
      "gen": 849,
      "feature": 850,
      "inter": 851,
      "warning": 852,
      "ay": 853,
      "api": 854,
      "wor": 855,
      "low": 856,
      "dist": 857,
      "([": 858,
      "cor": 859,
      "ze": 860,
      "float": 861,
      "len": 862,
      "when": 863,
      "_score": 864,
      "ang": 865,
      "new": 866,
      "Py": 867,
      "ir": 868,
      "xp": 869,
      "ac": 870,
      "metric": 871,
      "run": 872,
      "_m": 873,
      "compon": 874,
      "ask": 875,
      "tests": 876,
      "move": 877,
      "ber": 878,
      "ision": 879,
      "AP": 880,
      "array_": 881,
      "parametri": 882,
      "ok": 883,
      "clf": 884,
      "\"]": 885,
      "ies": 886,
      "ame": 887,
      "max_": 888,
      "cept": 889,
      "####": 890,
      "ther": 891,
      "API": 892,
      "client": 893,
      "rout": 894,
      "equal": 895,
      "sho": 896,
      "else": 897,
      "son": 898,
      "expect": 899,
      "Ex": 900,
      "ile": 901,
      "raise": 902,
      "ment": 903,
      "bin": 904,
      "classes": 905,
      "sparse": 906,
      "al_": 907,
      "sample_weight": 908,
      "uld": 909,
      "args": 910,
      "sg": 911,
      "ime": 912,
      "igh": 913,
      "back": 914,
      "12": 915,
      "object": 916,
      "parametrize": 917,
      "key": 918,
      "release": 919,
      "ref": 920,
      "bot": 921,
      "thon": 922,
      "json": 923,
      "ali": 924,
      "output": 925,
      "cy": 926,
      "plit": 927,
      "gor": 928,
      "vari": 929,
      "cess": 930,
      "ulti": 931,
      "components": 932,
      "rect": 933,
      "`.": 934,
      "gression": 935,
      "_re": 936,
      "lib": 937,
      "This": 938,
      "fil": 939,
      "ary": 940,
      "clust": 941,
      "ear": 942,
      "sed": 943,
      "coef": 944,
      "32": 945,
      "ranch": 946,
      "branch": 947,
      "old": 948,
      "matri": 949,
      "Class": 950,
      ">>>": 951,
      "ception": 952,
      "ribut": 953,
      "pass": 954,
      "true": 955,
      "validation": 956,
      "**": 957,
      "used": 958,
      "er_": 959,
      "kit": 960,
      "ach": 961,
      "fit_": 962,
      "alph": 963,
      "more": 964,
      "p_": 965,
      "itle": 966,
      "ren": 967,
      "scikit": 968,
      "NT": 969,
      "ser": 970,
      "support": 971,
      "sub": 972,
      "...": 973,
      "tar": 974,
      "ors": 975,
      "An": 976,
      "stat": 977,
      "can": 978,
      "read": 979,
      "red": 980,
      "rst": 981,
      "notes": 982,
      "has": 983,
      "Value": 984,
      "cation": 985,
      "check_": 986,
      "dependen": 987,
      "64": 988,
      "gra": 989,
      "ises": 990,
      "ding": 991,
      "orm": 992,
      "ument": 993,
      "clo": 994,
      "cur": 995,
      "ern": 996,
      "e_": 997,
      "14": 998,
      "title": 999,
      "De": 1000,
      "update": 1001,
      "will": 1002,
      "ange": 1003,
      "ctions": 1004,
      "pi": 1005,
      "matrix": 1006,
      "dis": 1007,
      "ernel": 1008,
      "vel": 1009,
      "ble": 1010,
      "only": 1011,
      "ValueError": 1012,
      "und": 1013,
      "20": 1014,
      "sum": 1015,
      "wn": 1016,
      "func": 1017,
      "art": 1018,
      "example": 1019,
      "desc": 1020,
      "::": 1021,
      "aut": 1022,
      "cal": 1023,
      "fail": 1024,
      "commit": 1025,
      "pace": 1026,
      "like": 1027,
      "unk": 1028,
      "ha": 1029,
      "comput": 1030,
      "sol": 1031,
      "number": 1032,
      "loss": 1033,
      "ere": 1034,
      "ing_": 1035,
      "plic": 1036,
      "================": 1037,
      "dataset": 1038,
      "11": 1039,
      "skip": 1040,
      "roup": 1041,
      "option": 1042,
      "mail": 1043,
      "yn": 1044,
      "pos": 1045,
      "ype": 1046,
      "_name": 1047,
      "ta": 1048,
      "patch": 1049,
      "ome": 1050,
      "items": 1051,
      "reg": 1052,
      "mean": 1053,
      "input": 1054,
      "gress": 1055,
      "nd": 1056,
      "ng": 1057,
      "norm": 1058,
      "dex": 1059,
      "ero": 1060,
      "requi": 1061,
      "alpha": 1062,
      "_id": 1063,
      "text": 1064,
      "multi": 1065,
      "Con": 1066,
      "fixture": 1067,
      "Par": 1068,
      "FI": 1069,
      "[:": 1070,
      "22": 1071,
      "lines": 1072,
      "ply": 1073,
      "(\"/": 1074,
      "load": 1075,
      "time": 1076,
      "Lo": 1077,
      "raises": 1078,
      "av": 1079,
      "If": 1080,
      "print": 1081,
      "ugin": 1082,
      "bu": 1083,
      "ild": 1084,
      "Classifier": 1085,
      "kernel": 1086,
      "format": 1087,
      "gener": 1088,
      "contain": 1089,
      "clu": 1090,
      "instance": 1091,
      "dir": 1092,
      "should": 1093,
      "score": 1094,
      "warnings": 1095,
      "\"],": 1096,
      "modu": 1097,
      "ighb": 1098,
      "module": 1099,
      "parameter": 1100,
      "ations": 1101,
      "link": 1102,
      "non": 1103,
      "added": 1104,
      "labels": 1105,
      "lect": 1106,
      "alias": 1107,
      "lob": 1108,
      "rng": 1109,
      "wr": 1110,
      "ian": 1111,
      "pred": 1112,
      "Se": 1113,
      "plugin": 1114,
      "200": 1115,
      "EN": 1116,
      "_se": 1117,
      "ils": 1118,
      "ml": 1119,
      "FIX": 1120,
      "kw": 1121,
      "descri": 1122,
      "meta": 1123,
      "ence": 1124,
      "](": 1125,
      "ses": 1126,
      "rent": 1127,
      "devi": 1128,
      "ich": 1129,
      "100": 1130,
      "ally": 1131,
      "ca": 1132,
      "ense": 1133,
      "act": 1134,
      "using": 1135,
      "part": 1136,
      "copy": 1137,
      "assert_array_": 1138,
      "fl": 1139,
      "context": 1140,
      "attr": 1141,
      "bool": 1142,
      "y_true": 1143,
      "Mo": 1144,
      "numpy": 1145,
      "dec": 1146,
      "iv": 1147,
      "axis": 1148,
      "ger": 1149,
      "13": 1150,
      "gmail": 1151,
      "unt": 1152,
      "base": 1153,
      "zero": 1154,
      "af": 1155,
      "spe": 1156,
      "uni": 1157,
      "bet": 1158,
      "eld": 1159,
      "which": 1160,
      "Param": 1161,
      "svn": 1162,
      "target": 1163,
      "St": 1164,
      "typ": 1165,
      "tribut": 1166,
      "_pro": 1167,
      "ategor": 1168,
      "ST": 1169,
      "msg": 1170,
      "indi": 1171,
      "tem": 1172,
      "15": 1173,
      "_model": 1174,
      "fin": 1175,
      "essage": 1176,
      "node": 1177,
      "fast": 1178,
      "scor": 1179,
      "gressor": 1180,
      "ting": 1181,
      "nore": 1182,
      "description": 1183,
      "any": 1184,
      "----------------": 1185,
      "users": 1186,
      "auto": 1187,
      "linear": 1188,
      "ard": 1189,
      "AI": 1190,
      "tol": 1191,
      "chema": 1192,
      "\"},": 1193,
      "plt": 1194,
      "work": 1195,
      "cv": 1196,
      "pp": 1197,
      "status": 1198,
      "most": 1199,
      "33": 1200,
      "intercept": 1201,
      "verage": 1202,
      "open": 1203,
      "cent": 1204,
      "atch": 1205,
      "ances": 1206,
      "end": 1207,
      "noreply": 1208,
      "lock": 1209,
      "cre": 1210,
      "over": 1211,
      "some": 1212,
      "device": 1213,
      "rid": 1214,
      "n_components": 1215,
      "into": 1216,
      "python": 1217,
      "\"),": 1218,
      "25": 1219,
      "content": 1220,
      "url": 1221,
      "_ex": 1222,
      "close": 1223,
      "remove": 1224,
      "resh": 1225,
      "samples": 1226,
      "Paramet": 1227,
      "ighbors": 1228,
      "r_": 1229,
      "te": 1230,
      "Fast": 1231,
      "miss": 1232,
      "hand": 1233,
      "_code": 1234,
      "its": 1235,
      "_names": 1236,
      "ition": 1237,
      "CA": 1238,
      "bl": 1239,
      "ative": 1240,
      "is_": 1241,
      "split": 1242,
      "Base": 1243,
      "ENH": 1244,
      "level": 1245,
      "ns": 1246,
      "size": 1247,
      "imple": 1248,
      "',": 1249,
      "ite": 1250,
      "variance": 1251,
      "diff": 1252,
      "cluster": 1253,
      "document": 1254,
      "17": 1255,
      "man": 1256,
      "deprec": 1257,
      "CO": 1258,
      "each": 1259,
      "ide": 1260,
      "oc": 1261,
      "SV": 1262,
      "sy": 1263,
      "Ret": 1264,
      "predi": 1265,
      "tag": 1266,
      "other": 1267,
      "ster": 1268,
      "Warning": 1269,
      "order": 1270,
      "16": 1271,
      "classifi": 1272,
      "tree": 1273,
      "index": 1274,
      "Return": 1275,
      "99": 1276,
      "ER": 1277,
      "ead": 1278,
      "FastAPI": 1279,
      "clude": 1280,
      "ie": 1281,
      "trunk": 1282,
      "_f": 1283,
      "point": 1284,
      "dev": 1285,
      "For": 1286,
      "prob": 1287,
      "head": 1288,
      "Pytest": 1289,
      "########": 1290,
      "const": 1291,
      "_b": 1292,
      "Type": 1293,
      "pla": 1294,
      "hel": 1295,
      "ync": 1296,
      "case": 1297,
      "\"}": 1298,
      "wise": 1299,
      "utils": 1300,
      "chang": 1301,
      "master": 1302,
      "wo": 1303,
      "categor": 1304,
      "expected": 1305,
      "does": 1306,
      "Est": 1307,
      "Res": 1308,
      "----------": 1309,
      "set_": 1310,
      "_sparse": 1311,
      "range": 1312,
      "io": 1313,
      "_path": 1314,
      "colum": 1315,
      "change": 1316,
      "job": 1317,
      "scal": 1318,
      "ved": 1319,
      "glob": 1320,
      "pres": 1321,
      "root": 1322,
      "urce": 1323,
      "18": 1324,
      "bd": 1325,
      "files": 1326,
      "have": 1327,
      "foo": 1328,
      "w_": 1329,
      "parameters": 1330,
      "ndarray": 1331,
      "Che": 1332,
      "kwargs": 1333,
      "Not": 1334,
      "vert": 1335,
      "Check": 1336,
      "ep": 1337,
      "27": 1338,
      "estimators": 1339,
      "mod": 1340,
      "docstring": 1341,
      "lean": 1342,
      "HG": 1343,
      "Parameters": 1344,
      "y_pred": 1345,
      "[:,": 1346,
      "verbo": 1347,
      "group": 1348,
      "_equal": 1349,
      ".\"\"\"": 1350,
      "info": 1351,
      "status_code": 1352,
      "conf": 1353,
      "first": 1354,
      "---": 1355,
      "dient": 1356,
      "Random": 1357,
      "assed": 1358,
      "ted": 1359,
      "uff": 1360,
      "gr": 1361,
      "(),": 1362,
      "required": 1363,
      "24": 1364,
      "Regressor": 1365,
      "Com": 1366,
      "Cli": 1367,
      "setup": 1368,
      "19": 1369,
      "exception": 1370,
      "results": 1371,
      "message": 1372,
      "nan": 1373,
      "istic": 1374,
      "cap": 1375,
      "enco": 1376,
      "Ch": 1377,
      "Im": 1378,
      "ignore": 1379,
      "30": 1380,
      "cons": 1381,
      "ization": 1382,
      "CV": 1383,
      "solver": 1384,
      "1e": 1385,
      "lection": 1386,
      "CI": 1387,
      "process": 1388,
      "almost": 1389,
      "cs": 1390,
      "RE": 1391,
      "`,": 1392,
      "md": 1393,
      "count": 1394,
      "Al": 1395,
      "ath": 1396,
      "expected_": 1397,
      "user": 1398,
      "stru": 1399,
      "passed": 1400,
      "metadata": 1401,
      "ak": 1402,
      "allow": 1403,
      "start": 1404,
      "prox": 1405,
      "issue": 1406,
      "attribut": 1407,
      "max_iter": 1408,
      "pare": 1409,
      "mon": 1410,
      "direct": 1411,
      "Validation": 1412,
      "allclose": 1413,
      "HT": 1414,
      "led": 1415,
      "average": 1416,
      "valid": 1417,
      "ause": 1418,
      "Client": 1419,
      "77": 1420,
      "hook": 1421,
      "ens": 1422,
      "almost_equal": 1423,
      "now": 1424,
      "ft": 1425,
      "ual": 1426,
      "fastapi": 1427,
      "play": 1428,
      "dependency": 1429,
      "ical": 1430,
      "Ar": 1431,
      "main": 1432,
      "classification": 1433,
      "42": 1434,
      "ind": 1435,
      "orig": 1436,
      "assert_allclose": 1437,
      "decision": 1438,
      "pri": 1439,
      "_size": 1440,
      "instead": 1441,
      "40": 1442,
      "35": 1443,
      "rig": 1444,
      "was": 1445,
      "ify": 1446,
      "Regression": 1447,
      "isinstance": 1448,
      "off": 1449,
      "Pytester": 1450,
      "ack": 1451,
      "chem": 1452,
      "build": 1453,
      "Exception": 1454,
      "than": 1455,
      "\"/": 1456,
      "arch": 1457,
      "word": 1458,
      "pack": 1459,
      "os": 1460,
      "report": 1461,
      "abot": 1462,
      "neighbors": 1463,
      "cro": 1464,
      "dependabot": 1465,
      "().": 1466,
      "same": 1467,
      "Bo": 1468,
      "oper": 1469,
      "weights": 1470,
      "Response": 1471,
      "schema": 1472,
      "Estimator": 1473,
      "precision": 1474,
      "ken": 1475,
      "row": 1476,
      "container": 1477,
      "testing": 1478,
      "n_classes": 1479,
      "ield": 1480,
      "missing": 1481,
      "verbose": 1482,
      "ini": 1483,
      "Remove": 1484,
      "my": 1485,
      "([[": 1486,
      "assert_array_equal": 1487,
      "45": 1488,
      "bug": 1489,
      "izer": 1490,
      "make_": 1491,
      "]]": 1492,
      "_d": 1493,
      "ti": 1494,
      "ong": 1495,
      "try": 1496,
      "RG": 1497,
      "sing": 1498,
      "TestClient": 1499,
      "Le": 1500,
      "last": 1501,
      "rel": 1502,
      "Trans": 1503,
      "feature_names": 1504,
      "abil": 1505,
      "documentation": 1506,
      "cond": 1507,
      "ous": 1508,
      "prove": 1509,
      "].": 1510,
      "ate_": 1511,
      "factor": 1512,
      "async": 1513,
      "dout": 1514,
      "itive": 1515,
      "We": 1516,
      "place": 1517,
      "TP": 1518,
      "_pytest": 1519,
      "peline": 1520,
      "source": 1521,
      "normal": 1522,
      "eps": 1523,
      "metrics": 1524,
      "indices": 1525,
      "iris": 1526,
      "ine": 1527,
      "\"])": 1528,
      "idate": 1529,
      "Returns": 1530,
      "respon": 1531,
      "__init": 1532,
      "correct": 1533,
      "namespace": 1534,
      "50": 1535,
      "stdout": 1536,
      "ost": 1537,
      "__init__": 1538,
      "post": 1539,
      "MRG": 1540,
      "inte": 1541,
      "applic": 1542,
      "regression": 1543,
      "Use": 1544,
      "_type": 1545,
      "((": 1546,
      "ithm": 1547,
      "gth": 1548,
      "left": 1549,
      "asso": 1550,
      "Model": 1551,
      "err": 1552,
      "down": 1553,
      "ery": 1554,
      "ango": 1555,
      "classifier": 1556,
      "HTTP": 1557,
      "rand": 1558,
      "spec": 1559,
      "Doc": 1560,
      "df": 1561,
      ".\"": 1562,
      "callback": 1563,
      "way": 1564,
      "updat": 1565,
      "cr": 1566,
      "cies": 1567,
      "Id": 1568,
      "ustom": 1569,
      "58": 1570,
      ",)": 1571,
      "_scor": 1572,
      "org": 1573,
      "reshold": 1574,
      "_to": 1575,
      "repr": 1576,
      "gorithm": 1577,
      "differ": 1578,
      "loc": 1579,
      "ized": 1580,
      "where": 1581,
      "uple": 1582,
      "{}": 1583,
      "coef_": 1584,
      "Path": 1585,
      "Dis": 1586,
      "tm": 1587,
      "emp": 1588,
      "_split": 1589,
      "See": 1590,
      "warn": 1591,
      "Gu": 1592,
      "ible": 1593,
      "ON": 1594,
      "ake": 1595,
      "_proba": 1596,
      "opt": 1597,
      "bar": 1598,
      "jo": 1599,
      "prop": 1600,
      "ging": 1601,
      "uniqu": 1602,
      "means": 1603,
      "term": 1604,
      "br": 1605,
      "_data": 1606,
      "wra": 1607,
      "schem": 1608,
      "^^": 1609,
      "itre": 1610,
      "typo": 1611,
      "sys": 1612,
      "sm": 1613,
      "maitre": 1614,
      "fixes": 1615,
      "partial": 1616,
      "Lin": 1617,
      "[[": 1618,
      "_params": 1619,
      "right": 1620,
      "urn_": 1621,
      "_rout": 1622,
      "pair": 1623,
      "return_": 1624,
      "application": 1625,
      "66": 1626,
      "34": 1627,
      "fn": 1628,
      "1_": 1629,
      "algorithm": 1630,
      "compare": 1631,
      "write": 1632,
      "_sk": 1633,
      "compat": 1634,
      "append": 1635,
      "jobs": 1636,
      "must": 1637,
      "scipy": 1638,
      "Au": 1639,
      "User": 1640,
      "types": 1641,
      "Added": 1642,
      "CS": 1643,
      "Un": 1644,
      "distances": 1645,
      "clusters": 1646,
      "ME": 1647,
      "deta": 1648,
      "cope": 1649,
      "Bum": 1650,
      "_function": 1651,
      "html": 1652,
      "Log": 1653,
      "giv": 1654,
      "\"):": 1655,
      "oid": 1656,
      "datasets": 1657,
      "actions": 1658,
      "-------": 1659,
      "versionadded": 1660,
      "parent": 1661,
      "su": 1662,
      "ful": 1663,
      "Requ": 1664,
      "ew": 1665,
      "global_": 1666,
      "inal": 1667,
      "Any": 1668,
      "MAI": 1669,
      "threshold": 1670,
      "!=": 1671,
      "())": 1672,
      "need": 1673,
      "ular": 1674,
      "_lines": 1675,
      "Python": 1676,
      "also": 1677,
      "refer": 1678,
      "Annot": 1679,
      "MAINT": 1680,
      "X_train": 1681,
      "uring": 1682,
      "handl": 1683,
      "65": 1684,
      "utor": 1685,
      "openapi": 1686,
      "tags": 1687,
      "alle": 1688,
      "pd": 1689,
      "X_test": 1690,
      "our": 1691,
      "utorial": 1692,
      "validate": 1693,
      "color": 1694,
      "about": 1695,
      "Transform": 1696,
      "gri": 1697,
      "28": 1698,
      "bod": 1699,
      "State": 1700,
      "propert": 1701,
      "net": 1702,
      "cause": 1703,
      "vector": 1704,
      "quare": 1705,
      "errors": 1706,
      "IN": 1707,
      "ments": 1708,
      "38": 1709,
      "deprecated": 1710,
      "operation": 1711,
      "_l": 1712,
      "git": 1713,
      "='": 1714,
      "dependencies": 1715,
      "search": 1716,
      "Item": 1717,
      "unit": 1718,
      "session": 1719,
      "37": 1720,
      "runpytest": 1721,
      "inf": 1722,
      "[-": 1723,
      "rat": 1724,
      "svm": 1725,
      "es_": 1726,
      "transl": 1727,
      "fit_transform": 1728,
      "Me": 1729,
      "neg": 1730,
      "Array": 1731,
      "Annotated": 1732,
      "covariance": 1733,
      "49": 1734,
      "vis": 1735,
      "ev": 1736,
      "fore": 1737,
      "gradient": 1738,
      "moved": 1739,
      "makepy": 1740,
      "tutorial": 1741,
      "ail": 1742,
      "Tree": 1743,
      "ced": 1744,
      "ValidationError": 1745,
      "approx": 1746,
      "exc": 1747,
      "ages": 1748,
      "mode": 1749,
      "_n": 1750,
      "graph": 1751,
      "tuple": 1752,
      "tern": 1753,
      "velo": 1754,
      "makepyfile": 1755,
      "show": 1756,
      "n_iter": 1757,
      "%%": 1758,
      "29": 1759,
      "En": 1760,
      "iled": 1761,
      "Request": 1762,
      "full": 1763,
      "ins": 1764,
      "implement": 1765,
      "=[": 1766,
      "_test": 1767,
      "ream": 1768,
      "empty": 1769,
      "best": 1770,
      "filter": 1771,
      "Pro": 1772,
      "uss": 1773,
      "OR": 1774,
      "IT": 1775,
      "[]": 1776,
      "trace": 1777,
      "_with": 1778,
      "It": 1779,
      "n_jobs": 1780,
      "pand": 1781,
      "]])": 1782,
      "]:": 1783,
      "ases": 1784,
      "collect": 1785,
      "mary": 1786,
      "training": 1787,
      "cache": 1788,
      "consist": 1789,
      ":`~": 1790,
      "fol": 1791,
      "_in_": 1792,
      "annot": 1793,
      "extra": 1794,
      "RandomState": 1795,
      "from_": 1796,
      "26": 1797,
      "pytest_": 1798,
      "ugh": 1799,
      "Pre": 1800,
      "ined": 1801,
      "binary": 1802,
      "pipeline": 1803,
      "ou": 1804,
      "verse": 1805,
      "_scal": 1806,
      "ash": 1807,
      "current": 1808,
      "_g": 1809,
      "issues": 1810,
      "prediction": 1811,
      "_out": 1812,
      "Call": 1813,
      "ni": 1814,
      "ory": 1815,
      "dep": 1816,
      "see": 1817,
      "pping": 1818,
      "develo": 1819,
      "ussian": 1820,
      "examples": 1821,
      "ension": 1822,
      "fect": 1823,
      "after": 1824,
      "length": 1825,
      "include": 1826,
      "_fit": 1827,
      "No": 1828,
      "bound": 1829,
      "=(": 1830,
      "sto": 1831,
      "http": 1832,
      "igned": 1833,
      "a_": 1834,
      "comple": 1835,
      "termin": 1836,
      "env": 1837,
      "Str": 1838,
      "SE": 1839,
      "cov": 1840,
      "given": 1841,
      "custom": 1842,
      "Fr": 1843,
      "AR": 1844,
      "ates": 1845,
      "yield": 1846,
      "positive": 1847,
      "computed": 1848,
      "Linear": 1849,
      "MNT": 1850,
      "what": 1851,
      "vier": 1852,
      "acc": 1853,
      "stri": 1854,
      "predict_proba": 1855,
      "ratio": 1856,
      "different": 1857,
      "livier": 1858,
      "ween": 1859,
      "Dat": 1860,
      "ject": 1861,
      "produ": 1862,
      "response_model": 1863,
      "struct": 1864,
      "between": 1865,
      "predictions": 1866,
      "pandas": 1867,
      "requests": 1868,
      "child": 1869,
      "ume": 1870,
      "_seed": 1871,
      "flask": 1872,
      "action": 1873,
      "schemas": 1874,
      "dire": 1875,
      "two": 1876,
      "TST": 1877,
      "pairwise": 1878,
      "_h": 1879,
      "elif": 1880,
      "_info": 1881,
      "monkey": 1882,
      "bad": 1883,
      "bb": 1884,
      "Mix": 1885,
      "develop": 1886,
      "improve": 1887,
      "Transformer": 1888,
      "Data": 1889,
      "fer": 1890,
      "================================": 1891,
      "aussian": 1892,
      "assert_array_almost_equal": 1893,
      "join": 1894,
      "36": 1895,
      "ry": 1896,
      "monkeypatch": 1897,
      "85": 1898,
      "dim": 1899,
      "Read": 1900,
      "idx": 1901,
      "ss_": 1902,
      "float64": 1903,
      "ars": 1904,
      "+=": 1905,
      "summary": 1906,
      "log_": 1907,
      "\".": 1908,
      "ron": 1909,
      "encoding": 1910,
      "distance": 1911,
      "changed": 1912,
      "_sample": 1913,
      "Num": 1914,
      "methods": 1915,
      "_msg": 1916,
      "fnmatch": 1917,
      "_no": 1918,
      "random_seed": 1919,
      "then": 1920,
      "AN": 1921,
      "response_": 1922,
      "present": 1923,
      "attribute": 1924,
      "One": 1925,
      "plicit": 1926,
      "39": 1927,
      "ERS": 1928,
      "Logistic": 1929,
      "Inter": 1930,
      "cook": 1931,
      "Group": 1932,
      "plot_": 1933,
      "fitted": 1934,
      "raw_": 1935,
      "optim": 1936,
      "callable": 1937,
      "during": 1938,
      "ib": 1939,
      "rc": 1940,
      "CH": 1941,
      "except": 1942,
      "transformer": 1943,
      "accept": 1944,
      "just": 1945,
      "raint": 1946,
      "fici": 1947,
      "fixt": 1948,
      "state": 1949,
      "view": 1950,
      "\"#": 1951,
      "solut": 1952,
      "yle": 1953,
      "astype": 1954,
      "super": 1955,
      "TE": 1956,
      "GE": 1957,
      "sort": 1958,
      "_CO": 1959,
      "compute": 1960,
      "_alias": 1961,
      "thread": 1962,
      "specifi": 1963,
      "\"{": 1964,
      "both": 1965,
      "_sub": 1966,
      "fit_intercept": 1967,
      "stream": 1968,
      "y_train": 1969,
      "_get_": 1970,
      "*,": 1971,
      "because": 1972,
      "_idx": 1973,
      "buil": 1974,
      "ensure": 1975,
      "]@": 1976,
      "high": 1977,
      "osting": 1978,
      "75": 1979,
      "pca": 1980,
      "ability": 1981,
      "gy": 1982,
      "fnmatch_lines": 1983,
      "46": 1984,
      "frame": 1985,
      "################": 1986,
      "there": 1987,
      "clean": 1988,
      "abs": 1989,
      "eval": 1990,
      "global_random_seed": 1991,
      "fixed": 1992,
      "query": 1993,
      "arrays": 1994,
      "ency": 1995,
      "Wh": 1996,
      "avoid": 1997,
      "headers": 1998,
      "LogisticRegression": 1999,
      "Ra": 2000,
      "field": 2001,
      "uffle": 2002,
      "Author": 2003,
      "blue": 2004,
      "rin": 2005,
      "conftest": 2006,
      "director": 2007,
      "mut": 2008,
      "fixtures": 2009,
      "LO": 2010,
      "ner": 2011,
      "leaf": 2012,
      "go": 2013,
      "based": 2014,
      "responses": 2015,
      "PCA": 2016,
      "sim": 2017,
      "array_api": 2018,
      "ating": 2019,
      "imum": 2020,
      "80": 2021,
      "les": 2022,
      "lear": 2023,
      "Ne": 2024,
      "blem": 2025,
      "min_": 2026,
      "shot": 2027,
      "\"*": 2028,
      "nap": 2029,
      "tiango": 2030,
      "tiangolo": 2031,
      "initial": 2032,
      "hello": 2033,
      "name__": 2034,
      "scope": 2035,
      "strate": 2036,
      "_2": 2037,
      "ish": 2038,
      "thro": 2039,
      "At": 2040,
      "failed": 2041,
      "war": 2042,
      "uration": 2043,
      "before": 2044,
      "constraint": 2045,
      "small": 2046,
      "ving": 2047,
      "mem": 2048,
      "very": 2049,
      "ered": 2050,
      "enable": 2051,
      "map": 2052,
      "pos_": 2053,
      "auth": 2054,
      "ese": 2055,
      "how": 2056,
      "BS": 2057,
      "ell": 2058,
      "csr_": 2059,
      "sph": 2060,
      "dense": 2061,
      "ature": 2062,
      "uble": 2063,
      "LE": 2064,
      "__name__": 2065,
      "zeros": 2066,
      "without": 2067,
      "translation": 2068,
      "tes": 2069,
      "Display": 2070,
      "dro": 2071,
      "space": 2072,
      "Tra": 2073,
      "andard": 2074,
      "stack": 2075,
      "eta": 2076,
      "napshot": 2077,
      "antic": 2078,
      "comment": 2079,
      "writ": 2080,
      "let": 2081,
      "defined": 2082,
      "imput": 2083,
      "([\"": 2084,
      "columns": 2085,
      "sa": 2086,
      "jer": 2087,
      "problem": 2088,
      "float32": 2089,
      "argument": 2090,
      "omas": 2091,
      "illa": 2092,
      "double": 2093,
      "estimator_": 2094,
      "SVC": 2095,
      "Gra": 2096,
      "mask": 2097,
      "step": 2098,
      "sparse_": 2099,
      "Release": 2100,
      "tmp_": 2101,
      "]),": 2102,
      "body": 2103,
      "ules": 2104,
      "help": 2105,
      "Di": 2106,
      "01": 2107,
      "}\"": 2108,
      "item_id": 2109,
      "don": 2110,
      "scores": 2111,
      "On": 2112,
      "typing": 2113,
      "Dec": 2114,
      "_1": 2115,
      "ccess": 2116,
      "mble": 2117,
      "*\",": 2118,
      "task": 2119,
      "logging": 2120,
      "changes": 2121,
      "_init": 2122,
      "\"#/": 2123,
      ");": 2124,
      "changelog": 2125,
      "updated": 2126,
      "Bump": 2127,
      "ailable": 2128,
      "Fixes": 2129,
      "Make": 2130,
      "PE": 2131,
      "wid": 2132,
      "Mixin": 2133,
      "cut": 2134,
      "dot": 2135,
      "load_": 2136,
      "better": 2137,
      "distribut": 2138,
      "provi": 2139,
      "target_": 2140,
      "_sh": 2141,
      "Fixed": 2142,
      "require": 2143,
      "quant": 2144,
      "single": 2145,
      "conne": 2146,
      "sp": 2147,
      "urve": 2148,
      "package": 2149,
      "less": 2150,
      "hasattr": 2151,
      "ager": 2152,
      "\"$": 2153,
      "preprocess": 2154,
      "functions": 2155,
      "decision_function": 2156,
      "v0": 2157,
      "ession": 2158,
      "etch": 2159,
      "scoring": 2160,
      "('": 2161,
      "SG": 2162,
      "plotlib": 2163,
      "asarray": 2164,
      "mock": 2165,
      "local": 2166,
      "wer": 2167,
      "follow": 2168,
      "tmp_path": 2169,
      "sign": 2170,
      "position": 2171,
      "illaume": 2172,
      "Signed": 2173,
      "n_clusters": 2174,
      "Rout": 2175,
      "allel": 2176,
      "sq": 2177,
      "sen": 2178,
      "\").": 2179,
      "eig": 2180,
      "``.": 2181,
      "overri": 2182,
      "robot": 2183,
      "and_": 2184,
      "ped": 2185,
      "linear_model": 2186,
      "convert": 2187,
      "available": 2188,
      "unique": 2189,
      "ason": 2190,
      "mult": 2191,
      "_un": 2192,
      "l1_": 2193,
      "estim": 2194,
      "Interval": 2195,
      "rank": 2196,
      "Also": 2197,
      "]],": 2198,
      "integer": 2199,
      "entry": 2200,
      "ways": 2201,
      "bit": 2202,
      "ored": 2203,
      ">=": 2204,
      "ura": 2205,
      "you": 2206,
      "Col": 2207,
      "points": 2208,
      "thing": 2209,
      "cross": 2210,
      "ensemble": 2211,
      "exist": 2212,
      "uments": 2213,
      "under": 2214,
      "would": 2215,
      "formation": 2216,
      "perform": 2217,
      "}\")": 2218,
      "matplotlib": 2219,
      "c_": 2220,
      "char": 2221,
      "setting": 2222,
      "--------------------------------": 2223,
      "ences": 2224,
      "dantic": 2225,
      "ols": 2226,
      "clustering": 2227,
      "ities": 2228,
      ".,": 2229,
      "TO": 2230,
      "cat": 2231,
      "gre": 2232,
      "earch": 2233,
      "dem": 2234,
      "_indi": 2235,
      "ied": 2236,
      "lam": 2237,
      "_context": 2238,
      "idge": 2239,
      "supported": 2240,
      "Scal": 2241,
      "sure": 2242,
      "prefix": 2243,
      "Ridge": 2244,
      "tho": 2245,
      "inverse": 2246,
      "23": 2247,
      "may": 2248,
      "pos_label": 2249,
      "<=": 2250,
      "penal": 2251,
      "display": 2252,
      "Set": 2253,
      "Y_": 2254,
      "router": 2255,
      "bytes": 2256,
      "y_score": 2257,
      "_regression": 2258,
      "options": 2259,
      "BU": 2260,
      "_CONT": 2261,
      "pick": 2262,
      "cd": 2263,
      "optional": 2264,
      "ey": 2265,
      "sin": 2266,
      "numer": 2267,
      "add_": 2268,
      "common": 2269,
      "categories": 2270,
      "pol": 2271,
      "constant": 2272,
      "bed": 2273,
      "reference": 2274,
      "Lasso": 2275,
      "dow": 2276,
      "diag": 2277,
      "lar": 2278,
      "upport": 2279,
      "calls": 2280,
      "closed": 2281,
      "width": 2282,
      "ten": 2283,
      "inv": 2284,
      "handle": 2285,
      "paths": 2286,
      "route": 2287,
      "location": 2288,
      "cod": 2289,
      "assert_almost_equal": 2290,
      "modules": 2291,
      "original": 2292,
      "rele": 2293,
      "inite": 2294,
      "Note": 2295,
      "_error": 2296,
      "onic": 2297,
      "uses": 2298,
      "ll": 2299,
      "})": 2300,
      "explicit": 2301,
      "Guillaume": 2302,
      "light": 2303,
      "directory": 2304,
      "AS": 2305,
      "imal": 2306,
      "multiclass": 2307,
      "')": 2308,
      "AD": 2309,
      "ML": 2310,
      "_transform": 2311,
      "Lemaitre": 2312,
      "traceback": 2313,
      "l1_ratio": 2314,
      "expl": 2315,
      "depth": 2316,
      "nown": 2317,
      "lat": 2318,
      "cls": 2319,
      "models": 2320,
      "ener": 2321,
      "Change": 2322,
      "arget": 2323,
      "ions": 2324,
      "ames": 2325,
      "prior": 2326,
      "Out": 2327,
      "ones": 2328,
      "ctx": 2329,
      "ctionary": 2330,
      "while": 2331,
      "groups": 2332,
      "lambd": 2333,
      "Search": 2334,
      "AIN": 2335,
      "422": 2336,
      "Depend": 2337,
      "_selection": 2338,
      "(-": 2339,
      "━━": 2340,
      "multiple": 2341,
      "parser": 2342,
      "viron": 2343,
      "alibr": 2344,
      "links": 2345,
      "Gaussian": 2346,
      "batch": 2347,
      "omial": 2348,
      "90": 2349,
      "amma": 2350,
      "y_test": 2351,
      "evalu": 2352,
      "TypeError": 2353,
      "60": 2354,
      "aly": 2355,
      "negative": 2356,
      "bf": 2357,
      "cho": 2358,
      "uture": 2359,
      "autom": 2360,
      "err_msg": 2361,
      "_skip": 2362,
      "through": 2363,
      "beha": 2364,
      "ridge": 2365,
      "Option": 2366,
      "project": 2367,
      "_CONTAIN": 2368,
      "otonic": 2369,
      "attributes": 2370,
      "TI": 2371,
      "inx": 2372,
      "_CONTAINERS": 2373,
      "minor": 2374,
      "den": 2375,
      "_reg": 2376,
      "nicod": 2377,
      "demus": 2378,
      "Attribut": 2379,
      "nicoddemus": 2380,
      "ags": 2381,
      "column": 2382,
      "70": 2383,
      "tear": 2384,
      "information": 2385,
      "ule": 2386,
      "95": 2387,
      "hy": 2388,
      "Config": 2389,
      "ves": 2390,
      "tw": 2391,
      "invalid": 2392,
      "anced": 2393,
      "ICA": 2394,
      "exceptions": 2395,
      "capture": 2396,
      "_index": 2397,
      "Gradient": 2398,
      "op": 2399,
      ">`": 2400,
      "lim": 2401,
      "py3": 2402,
      "3b": 2403,
      "48": 2404,
      "ation_": 2405,
      "effect": 2406,
      "_file": 2407,
      "fetch": 2408,
      "gu": 2409,
      "={\"": 2410,
      "strategy": 2411,
      "jerem": 2412,
      "med": 2413,
      "square": 2414,
      "grisel": 2415,
      "dius": 2416,
      "bre": 2417,
      "behavi": 2418,
      "header": 2419,
      "properties": 2420,
      "cket": 2421,
      "HTTPValidationError": 2422,
      "rt": 2423,
      "PR": 2424,
      "SP": 2425,
      "test_s": 2426,
      "forge": 2427,
      "hether": 2428,
      "grid": 2429,
      "token": 2430,
      "cover": 2431,
      "removed": 2432,
      "Fun": 2433,
      ">`.": 2434,
      "_text": 2435,
      "uracy": 2436,
      "Run": 2437,
      "note": 2438,
      "shuffle": 2439,
      "98": 2440,
      "poss": 2441,
      "boo": 2442,
      "eigen": 2443,
      "classes_": 2444,
      "wrap": 2445,
      "_fit_": 2446,
      "ds": 2447,
      "fb": 2448,
      "math": 2449,
      "section": 2450,
      "d1": 2451,
      "78": 2452,
      "filen": 2453,
      "tre": 2454,
      "inline": 2455,
      "Enco": 2456,
      "own": 2457,
      "v1": 2458,
      "they": 2459,
      "component": 2460,
      "precomputed": 2461,
      "ton": 2462,
      "When": 2463,
      "_indices": 2464,
      "_check_": 2465,
      "style": 2466,
      "ccessful": 2467,
      "Fe": 2468,
      "Scaler": 2469,
      "_for": 2470,
      "_distances": 2471,
      "sw": 2472,
      "param_": 2473,
      "Su": 2474,
      "ele": 2475,
      "doctest": 2476,
      "final": 2477,
      "7d": 2478,
      "tri": 2479,
      "replace": 2480,
      "intern": 2481,
      "cv_": 2482,
      "Number": 2483,
      "lemaitre": 2484,
      "vergen": 2485,
      "called": 2486,
      "^^^^": 2487,
      "Meta": 2488,
      "environ": 2489,
      "consid": 2490,
      "xfail": 2491,
      "as_": 2492,
      "ench": 2493,
      "stra": 2494,
      "lemaitre58": 2495,
      "Decision": 2496,
      "Open": 2497,
      "reason": 2498,
      "_cv": 2499,
      "SearchCV": 2500,
      "vious": 2501,
      "_start": 2502,
      "vergence": 2503,
      "create": 2504,
      "ript": 2505,
      "dimension": 2506,
      "Only": 2507,
      "zip": 2508,
      "nodes": 2509,
      "Qu": 2510,
      "DE": 2511,
      "_class": 2512,
      "bro": 2513,
      "cret": 2514,
      "parallel": 2515,
      "getattr": 2516,
      "ld": 2517,
      "v2": 2518,
      "csr_container": 2519,
      "contin": 2520,
      "reshape": 2521,
      "Boosting": 2522,
      "ice": 2523,
      "mak": 2524,
      "accuracy": 2525,
      "utf": 2526,
      "UR": 2527,
      "ia": 2528,
      "collection": 2529,
      "min_samples": 2530,
      "gram": 2531,
      "select": 2532,
      "labels_": 2533,
      "Neighbors": 2534,
      "Fit": 2535,
      "db": 2536,
      "returns": 2537,
      "details": 2538,
      "boolean": 2539,
      "fold": 2540,
      "ucli": 2541,
      "rest": 2542,
      "always": 2543,
      "lector": 2544,
      "clone": 2545,
      "strict": 2546,
      "tox": 2547,
      "MIT": 2548,
      "uniform": 2549,
      "AL": 2550,
      "ote": 2551,
      "cross_": 2552,
      "here": 2553,
      "mits": 2554,
      "dean": 2555,
      "ilabel": 2556,
      "ility": 2557,
      "uclidean": 2558,
      "deg": 2559,
      "raw": 2560,
      "pred_": 2561,
      "ically": 2562,
      "pag": 2563,
      "them": 2564,
      "od_": 2565,
      "n_neighbors": 2566,
      "keys": 2567,
      "e3": 2568,
      "CSR": 2569,
      "constru": 2570,
      "outli": 2571,
      "Guide": 2572,
      "such": 2573,
      "Iter": 2574,
      "fan": 2575,
      "detail": 2576,
      "={": 2577,
      "AT": 2578,
      "21": 2579,
      "sem": 2580,
      "second": 2581,
      "compar": 2582,
      "Gener": 2583,
      "pped": 2584,
      "connect": 2585,
      "ord": 2586,
      "web": 2587,
      "gral": 2588,
      "long": 2589,
      "learning": 2590,
      "break": 2591,
      "sourceforge": 2592,
      "ound": 2593,
      "routing": 2594,
      "csr": 2595,
      "works": 2596,
      "rate": 2597,
      "olver": 2598,
      "missing_": 2599,
      "doesn": 2600,
      "SGD": 2601,
      "':": 2602,
      "_scores": 2603,
      "exp": 2604,
      "generator": 2605,
      "top": 2606,
      "lr": 2607,
      "scale": 2608,
      "criter": 2609,
      "\\\\": 2610,
      "dum": 2611,
      "noise": 2612,
      "absolut": 2613,
      "curve": 2614,
      "X_trans": 2615,
      "ram": 2616,
      "vent": 2617,
      "exe": 2618,
      "inclu": 2619,
      "ready": 2620,
      "COS": 2621,
      "ely": 2622,
      "recor": 2623,
      "raised": 2624,
      "_and_": 2625,
      "seed": 2626,
      "ids": 2627,
      "vid": 2628,
      "Multi": 2629,
      "Inte": 2630,
      "metadata_rout": 2631,
      "Successful": 2632,
      "COSMIT": 2633,
      ")),": 2634,
      "arguments": 2635,
      "checks": 2636,
      "generated": 2637,
      "curity": 2638,
      "_estimator": 2639,
      "encode": 2640,
      "percent": 2641,
      "_mask": 2642,
      "47": 2643,
      "block": 2644,
      "_sv": 2645,
      "proba": 2646,
      "_func": 2647,
      "SVM": 2648,
      "Fl": 2649,
      "targets": 2650,
      "snapshot": 2651,
      "s__": 2652,
      "c7d": 2653,
      "face": 2654,
      "hooks": 2655,
      "repe": 2656,
      "_schema": 2657,
      "_miss": 2658,
      "_cent": 2659,
      "override": 2660,
      "By": 2661,
      "97": 2662,
      "image": 2663,
      "4535": 2664,
      "From": 2665,
      "hist": 2666,
      "found": 2667,
      "warns": 2668,
      "property": 2669,
      "_kwargs": 2670,
      "alg": 2671,
      "\"--": 2672,
      "arange": 2673,
      "warm": 2674,
      "GradientBoosting": 2675,
      "c7d8": 2676,
      "alphas": 2677,
      "regular": 2678,
      "bd3b": 2679,
      "operationId": 2680,
      "05": 2681,
      "9bad": 2682,
      "fee3": 2683,
      "22fb": 2684,
      "svnroot": 2685,
      "27d1": 2686,
      "77ab": 2687,
      "consistent": 2688,
      "bd3bc7d8": 2689,
      "22fbfee3": 2690,
      "27d1bd3bc7d8": 2691,
      "n_features_in_": 2692,
      "provided": 2693,
      "({\"": 2694,
      "Fold": 2695,
      "_loss": 2696,
      "uet": 2697,
      "ually": 2698,
      "Ens": 2699,
      "bers": 2700,
      "prefer": 2701,
      "lik": 2702,
      "ical_": 2703,
      "possible": 2704,
      "jango": 2705,
      "bins": 2706,
      "std": 2707,
      "Forest": 2708,
      "feature_names_out": 2709,
      "class_weight": 2710,
      "returned": 2711,
      "ector": 2712,
      "hash": 2713,
      "active": 2714,
      "indic": 2715,
      "uri": 2716,
      "Ass": 2717,
      "ival": 2718,
      "als": 2719,
      "comments": 2720,
      "_sample_weight": 2721,
      "penalty": 2722,
      "gamma": 2723,
      "simple": 2724,
      "memory": 2725,
      "Examples": 2726,
      "Encoder": 2727,
      "metadata_routing": 2728,
      "tim": 2729,
      "ward": 2730,
      "django": 2731,
      "l2": 2732,
      "grid_": 2733,
      "ither": 2734,
      "cleanup": 2735,
      "preprocessing": 2736,
      "debug": 2737,
      "modi": 2738,
      "ified": 2739,
      "find": 2740,
      "lambda": 2741,
      "got": 2742,
      "mk": 2743,
      "side": 2744,
      "host": 2745,
      "constraints": 2746,
      "eno": 2747,
      "``,": 2748,
      "orch": 2749,
      "colors": 2750,
      "templ": 2751,
      "BaseModel": 2752,
      "already": 2753,
      "weighted": 2754,
      "JS": 2755,
      "chunk": 2756,
      "lower": 2757,
      "=[\"": 2758,
      "Sparse": 2759,
      "gl": 2760,
      "kind": 2761,
      "ts": 2762,
      "least": 2763,
      "entifier": 2764,
      "Callable": 2765,
      "Integral": 2766,
      "comp": 2767,
      "regist": 2768,
      "releases": 2769,
      "read_": 2770,
      "developers": 2771,
      "quantile": 2772,
      ")]": 2773,
      "rez": 2774,
      "++": 2775,
      "Key": 2776,
      "plugins": 2777,
      "67": 2778,
      "correspon": 2779,
      "abet": 2780,
      "Commits": 2781,
      "since": 2782,
      "_matrix": 2783,
      "page": 2784,
      "68": 2785,
      "tmp": 2786,
      "linalg": 2787,
      "ING": 2788,
      "Function": 2789,
      "euclidean": 2790,
      "ov": 2791,
      "_request": 2792,
      "pub": 2793,
      "Comput": 2794,
      "origin": 2795,
      "legen": 2796,
      "ANGE": 2797,
      "cc": 2798,
      "strings": 2799,
      "raw_prediction": 2800,
      "Raises": 2801,
      "BUG": 2802,
      "ruff": 2803,
      "\"))": 2804,
      "script": 2805,
      "Means": 2806,
      "criterion": 2807,
      "File": 2808,
      "n_estimators": 2809,
      "failure": 2810,
      "500": 2811,
      "Olivier": 2812,
      "Pi": 2813,
      "_on": 2814,
      "pep": 2815,
      "ighbor": 2816,
      "CHANGE": 2817,
      "sphinx": 2818,
      "gs": 2819,
      "seen": 2820,
      "iterations": 2821,
      "centers": 2822,
      "represent": 2823,
      "ity_": 2824,
      "drop": 2825,
      "So": 2826,
      "ptr": 2827,
      "implementation": 2828,
      "69": 2829,
      "importlib": 2830,
      "zero_": 2831,
      "itional": 2832,
      "TODO": 2833,
      "RI": 2834,
      "olivier": 2835,
      "pk": 2836,
      "radius": 2837,
      "been": 2838,
      "even": 2839,
      "_X": 2840,
      "learn_": 2841,
      "dictionary": 2842,
      "previous": 2843,
      "xy": 2844,
      "~~": 2845,
      "coverage": 2846,
      "handler": 2847,
      "following": 2848,
      "Real": 2849,
      "rv": 2850,
      "chain": 2851,
      "resol": 2852,
      "mix": 2853,
      "keyword": 2854,
      "manager": 2855,
      "URL": 2856,
      "_value": 2857,
      "complex": 2858,
      "Gri": 2859,
      "usion": 2860,
      "Fixture": 2861,
      "ICAg": 2862,
      "py310": 2863,
      "Grisel": 2864,
      "oo": 2865,
      "Ser": 2866,
      "Vector": 2867,
      "_curve": 2868,
      "Deprec": 2869,
      "static": 2870,
      "Min": 2871,
      "ables": 2872,
      "mean_": 2873,
      "Improve": 2874,
      "JSON": 2875,
      "IS": 2876,
      "Lic": 2877,
      "1000": 2878,
      "randn": 2879,
      "filename": 2880,
      "License": 2881,
      "rtol": 2882,
      "regressor": 2883,
      "svd": 2884,
      "55": 2885,
      "force": 2886,
      "fault": 2887,
      "integr": 2888,
      "leg": 2889,
      "cookie": 2890,
      "enum": 2891,
      "diabet": 2892,
      "ibility": 2893,
      "_warnings": 2894,
      "objects": 2895,
      "generate": 2896,
      "Label": 2897,
      "_array": 2898,
      "aa": 2899,
      "remain": 2900,
      "ilar": 2901,
      "sti": 2902,
      "dig": 2903,
      "equival": 2904,
      "BSD": 2905,
      "Flask": 2906,
      "pyplot": 2907,
      "iteration": 2908,
      "deprecation": 2909,
      "category": 2910,
      "Bumps": 2911,
      "_dtype": 2912,
      "ly_": 2913,
      "tools": 2914,
      "_time": 2915,
      "joblib": 2916,
      "safe": 2917,
      "ICAgICAg": 2918,
      "keep": 2919,
      "fitting": 2920,
      "_extra": 2921,
      "assertion": 2922,
      "all_": 2923,
      "_scorer": 2924,
      "CL": 2925,
      "mis": 2926,
      "docstrings": 2927,
      "eded": 2928,
      "cul": 2929,
      "ential": 2930,
      "DX": 2931,
      "next": 2932,
      "sta": 2933,
      "distribution": 2934,
      "disable": 2935,
      "intercept_": 2936,
      "44": 2937,
      "embed": 2938,
      "\"-": 2939,
      "Of": 2940,
      "pur": 2941,
      "ont": 2942,
      "tax": 2943,
      "decom": 2944,
      "model_selection": 2945,
      "partial_fit": 2946,
      "Authors": 2947,
      "mm": 2948,
      "merge": 2949,
      "redu": 2950,
      "no_": 2951,
      "_tree": 2952,
      "username": 2953,
      "diabetes": 2954,
      "KMeans": 2955,
      "Grid": 2956,
      "incre": 2957,
      "excinfo": 2958,
      "SPDX": 2959,
      "Assert": 2960,
      "ident": 2961,
      "install": 2962,
      "cking": 2963,
      "rink": 2964,
      "ensta": 2965,
      "det": 2966,
      "unused": 2967,
      "Identifier": 2968,
      "KFold": 2969,
      "apture": 2970,
      "_solver": 2971,
      "Clause": 2972,
      "_sum": 2973,
      "intro": 2974,
      "Attribute": 2975,
      "Field": 2976,
      "coeffici": 2977,
      "method_": 2978,
      "adding": 2979,
      "pep8": 2980,
      "xx": 2981,
      "pectr": 2982,
      "Kernel": 2983,
      "Mod": 2984,
      "Ram": 2985,
      "Sh": 2986,
      "án": 2987,
      "rag": 2988,
      "fill": 2989,
      "broken": 2990,
      "Seba": 2991,
      "enchmark": 2992,
      "\"\\": 2993,
      "scorer": 2994,
      "stopping": 2995,
      "esc": 2996,
      "ison": 2997,
      "max_features": 2998,
      "variable": 2999,
      "stián": 3000,
      "írez": 3001,
      "Ramírez": 3002,
      "Sebastián": 3003,
      "their": 3004,
      "unittest": 3005,
      "As": 3006,
      "sis": 3007,
      "pdb": 3008,
      "_features": 3009,
      "atol": 3010,
      "_with_": 3011,
      "Mar": 3012,
      "To": 3013,
      "[{\"": 3014,
      "class_": 3015,
      "duplic": 3016,
      "_splits": 3017,
      "Options": 3018,
      "pip": 3019,
      "refactor": 3020,
      "333": 3021,
      "Pass": 3022,
      "_values": 3023,
      "make_classification": 3024,
      "Inp": 3025,
      "come": 3026,
      "Input": 3027,
      "_check": 3028,
      "alysis": 3029,
      "remo": 3030,
      "actual": 3031,
      "Depends": 3032,
      "degree": 3033,
      "With": 3034,
      "onal": 3035,
      "proper": 3036,
      "abilities": 3037,
      "consistency": 3038,
      "Router": 3039,
      "determin": 3040,
      "\")],": 3041,
      "updates": 3042,
      "sqrt": 3043,
      "core": 3044,
      "Default": 3045,
      "Po": 3046,
      "Session": 3047,
      "being": 3048,
      "directly": 3049,
      "2_": 3050,
      "unique_": 3051,
      "LOG": 3052,
      "calibr": 3053,
      "ering": 3054,
      "rem": 3055,
      "ries": 3056,
      "numpydoc": 3057,
      "''": 3058,
      "TH": 3059,
      "decor": 3060,
      "comes": 3061,
      ")):": 3062,
      "lic": 3063,
      "production": 3064,
      "threads": 3065,
      "AU": 3066,
      "ravel": 3067,
      "large": 3068,
      "necess": 3069,
      "separ": 3070,
      "still": 3071,
      "handling": 3072,
      "TEST": 3073,
      "_output": 3074,
      "tot": 3075,
      "eld_": 3076,
      "requent": 3077,
      "BaseEstimator": 3078,
      "indow": 3079,
      "sequ": 3080,
      "needed": 3081,
      "command": 3082,
      "terminal": 3083,
      "{'": 3084,
      ")(": 3085,
      "88": 3086,
      "D_": 3087,
      "_log": 3088,
      "lasso": 3089,
      "configuration": 3090,
      ",),": 3091,
      "quer": 3092,
      "catch": 3093,
      "fs": 3094,
      "_square": 3095,
      "callbacks": 3096,
      "abc": 3097,
      "learning_": 3098,
      "default_": 3099,
      "contains": 3100,
      "warm_start": 3101,
      "Names": 3102,
      "ai": 3103,
      "isber": 3104,
      "dated": 3105,
      "combin": 3106,
      "ranger": 3107,
      "Feature": 3108,
      "isberranger": 3109,
      "mapping": 3110,
      "Code": 3111,
      "thresholds": 3112,
      "want": 3113,
      "dispatch": 3114,
      "teardown": 3115,
      "decomposition": 3116,
      "ning": 3117,
      "permut": 3118,
      "via": 3119,
      "cast": 3120,
      "DecisionTree": 3121,
      "699": 3122,
      "Det": 3123,
      "csc": 3124,
      "torch": 3125,
      "mypy": 3126,
      "eli": 3127,
      "Frame": 3128,
      "iedbb": 3129,
      "jeremiedbb": 3130,
      "behavior": 3131,
      "jp": 3132,
      "offset": 3133,
      "T_": 3134,
      "ress": 3135,
      "pec": 3136,
      "Standard": 3137,
      "column_": 3138,
      "free": 3139,
      "neighbor": 3140,
      "array_namespace": 3141,
      "is_fitted": 3142,
      "Import": 3143,
      "\"`": 3144,
      "adv": 3145,
      "axes": 3146,
      "rows": 3147,
      "31": 3148,
      "well": 3149,
      "marker": 3150,
      "ww": 3151,
      "numbers": 3152,
      "check_array": 3153,
      "components_": 3154,
      "integration": 3155,
      "Max": 3156,
      "typos": 3157,
      "_get": 3158,
      "pattern": 3159,
      "packages": 3160,
      "Module": 3161,
      "lang": 3162,
      "ech": 3163,
      "n_splits": 3164,
      "stem": 3165,
      "versions": 3166,
      "related": 3167,
      "blob": 3168,
      "_input": 3169,
      "toarray": 3170,
      "div": 3171,
      "CHANGELOG": 3172,
      "around": 3173,
      "Vectorizer": 3174,
      "dom": 3175,
      "ged": 3176,
      "uous": 3177,
      "future": 3178,
      "too": 3179,
      "internal": 3180,
      "erate": 3181,
      "matrices": 3182,
      "temp": 3183,
      "int64": 3184,
      "named": 3185,
      "_exclude": 3186,
      "Thomas": 3187,
      "my_": 3188,
      "ated_": 3189,
      "eliho": 3190,
      "zen": 3191,
      "int32": 3192,
      "OpenAPI": 3193,
      "FE": 3194,
      "izes": 3195,
      "simpl": 3196,
      "Bod": 3197,
      "null": 3198,
      "these": 3199,
      "ested_": 3200,
      "disp": 3201,
      "price": 3202,
      "hyper": 3203,
      "la": 3204,
      "sig": 3205,
      "reset": 3206,
      "Pydantic": 3207,
      "max_depth": 3208,
      "cannot": 3209,
      "sorted": 3210,
      "trees": 3211,
      ":]": 3212,
      "_module": 3213,
      "rep": 3214,
      "correctly": 3215,
      "_no_": 3216,
      "gb": 3217,
      "uch": 3218,
      "were": 3219,
      "ily": 3220,
      "with_": 3221,
      "auc": 3222,
      "000": 3223,
      "validation_alias": 3224,
      "{}}": 3225,
      "multilabel": 3226,
      "Bin": 3227,
      "Ho": 3228,
      "usage": 3229,
      "parameter_": 3230,
      "Info": 3231,
      "essian": 3232,
      "semver": 3233,
      "#:": 3234,
      "NO": 3235,
      "ko": 3236,
      "transformers": 3237,
      "comparison": 3238,
      "indows": 3239,
      "ier": 3240,
      "forest": 3241,
      "inspect": 3242,
      ")],": 3243,
      "reprec": 3244,
      "(*": 3245,
      "dd": 3246,
      "fli": 3247,
      "global": 3248,
      "store": 3249,
      "short": 3250,
      "estimators_": 3251,
      "results_": 3252,
      "StandardScaler": 3253,
      "_sklearn_": 3254,
      "79": 3255,
      "once": 3256,
      "imports": 3257,
      "passes": 3258,
      "Lock": 3259,
      "response_method": 3260,
      "Na": 3261,
      "S_": 3262,
      "cases": 3263,
      "skipped": 3264,
      "Auth": 3265,
      ".*": 3266,
      "Xt": 3267,
      "kip": 3268,
      "x_": 3269,
      "ested": 3270,
      "body_": 3271,
      "raction": 3272,
      "ross": 3273,
      "_by_": 3274,
      "structure": 3275,
      "Compute": 3276,
      "311": 3277,
      "thomas": 3278,
      "pop": 3279,
      "set_params": 3280,
      "TY": 3281,
      "_support": 3282,
      "multioutput": 3283,
      "avid": 3284,
      "sym": 3285,
      "sity": 3286,
      "impl": 3287,
      "READ": 3288,
      "vectors": 3289,
      "DataFrame": 3290,
      "GridSearchCV": 3291,
      "likeliho": 3292,
      "sets": 3293,
      "plugins_": 3294,
      "_level": 3295,
      "probability": 3296,
      "Assertion": 3297,
      "_categor": 3298,
      "annotation": 3299,
      "PL": 3300,
      "][": 3301,
      "informat": 3302,
      "standard": 3303,
      "Train": 3304,
      "Pipeline": 3305,
      "Fan": 3306,
      "xt": 3307,
      "unknown": 3308,
      "average_": 3309,
      "StrOptions": 3310,
      "alpha_": 3311,
      "necessary": 3312,
      "bal": 3313,
      "Dict": 3314,
      "remote": 3315,
      "socket": 3316,
      "PY": 3317,
      "Per": 3318,
      "_not": 3319,
      "abo": 3320,
      "49699": 3321,
      "jpfan": 3322,
      "thomasjpfan": 3323,
      "informative": 3324,
      "49699333": 3325,
      "ré": 3326,
      "colle": 3327,
      "bluet": 3328,
      "encoder": 3329,
      "digits": 3330,
      "bluetech": 3331,
      "swith": 3332,
      "could": 3333,
      "plots": 3334,
      "_namespace": 3335,
      "confusion": 3336,
      "constructor": 3337,
      "_list": 3338,
      "yed": 3339,
      "train_test": 3340,
      "MET": 3341,
      "rob": 3342,
      "pipe": 3343,
      "UserWarning": 3344,
      "README": 3345,
      "||": 3346,
      "wa": 3347,
      "done": 3348,
      "trun": 3349,
      "specific": 3350,
      "enumerate": 3351,
      "security": 3352,
      "etime": 3353,
      "unch": 3354,
      "(\"--": 3355,
      "shrink": 3356,
      "_tags": 3357,
      "fetch_": 3358,
      "_container": 3359,
      "na": 3360,
      "password": 3361,
      "_examples": 3362,
      "compatibility": 3363,
      "_str": 3364,
      "Def": 3365,
      "OS": 3366,
      "TYPE": 3367,
      "Net": 3368,
      "_count": 3369,
      "failures": 3370,
      "tick": 3371,
      "every": 3372,
      "ks": 3373,
      "alf": 3374,
      "power": 3375,
      "check_is_fitted": 3376,
      "wrong": 3377,
      "'.": 3378,
      "Do": 3379,
      "ordin": 3380,
      "modifi": 3381,
      "recall": 3382,
      "categorical": 3383,
      "train_test_split": 3384,
      "atter": 3385,
      "look": 3386,
      "annotations": 3387,
      "blueprint": 3388,
      "Whether": 3389,
      "_param": 3390,
      "collections": 3391,
      "defaults": 3392,
      "configure": 3393,
      "beta": 3394,
      "vs": 3395,
      "parametriz": 3396,
      "outputs": 3397,
      "kernels": 3398,
      "joinpath": 3399,
      "Fa": 3400,
      "Sequ": 3401,
      "oob": 3402,
      "tom": 3403,
      "selection": 3404,
      "derr": 3405,
      "_repr": 3406,
      "response_model_exclude": 3407,
      "Metadata": 3408,
      "redirect": 3409,
      "predicted": 3410,
      "_is_": 3411,
      "cert": 3412,
      "pose": 3413,
      "binar": 3414,
      "compute_": 3415,
      "continue": 3416,
      "indent": 3417,
      "n_iter_": 3418,
      "pkg": 3419,
      "AC": 3420,
      "Jé": 3421,
      "pes": 3422,
      "src": 3423,
      "Mon": 3424,
      "contribut": 3425,
      "aga": 3426,
      "dtype_name": 3427,
      "_router": 3428,
      "blueyed": 3429,
      "Cre": 3430,
      "(\"-": 3431,
      "server": 3432,
      "condition": 3433,
      "current_": 3434,
      "57": 3435,
      "mie": 3436,
      "memo": 3437,
      "_target": 3438,
      "Ap": 3439,
      "erance": 3440,
      "Boisberranger": 3441,
      "CSR_CONTAINERS": 3442,
      "rémie": 3443,
      "Jérémie": 3444,
      "rol": 3445,
      "unicode": 3446,
      "Hel": 3447,
      "cand": 3448,
      "tile": 3449,
      "ndim": 3450,
      "approxim": 3451,
      "introdu": 3452,
      "whit": 3453,
      "escape": 3454,
      "idden": 3455,
      "_nested_": 3456,
      "stable": 3457,
      "stderr": 3458,
      "delta": 3459,
      "TION": 3460,
      "Foo": 3461,
      "Non": 3462,
      "Context": 3463,
      "Changelog": 3464,
      "execut": 3465,
      "nodeid": 3466,
      "classifiers": 3467,
      "specified": 3468,
      "_dict": 3469,
      "_run": 3470,
      "lint": 3471,
      "might": 3472,
      "flat": 3473,
      "/\",": 3474,
      "LD": 3475,
      "__sklearn_": 3476,
      "deps": 3477,
      "probab": 3478,
      "calcul": 3479,
      "percentile": 3480,
      "Elast": 3481,
      "NE": 3482,
      "Name": 3483,
      "ality": 3484,
      "Elastic": 3485,
      "96": 3486,
      "importances": 3487,
      "Exit": 3488,
      "/\")": 3489,
      "to_": 3490,
      "limit": 3491,
      "/{": 3492,
      "did": 3493,
      "create_": 3494,
      "_version": 3495,
      "_kw": 3496,
      "datetime": 3497,
      "apping": 3498,
      "scaler": 3499,
      "gh": 3500,
      "get_namespace": 3501,
      "config_context": 3502,
      "exit": 3503,
      "obser": 3504,
      "imputer": 3505,
      "Mark": 3506,
      "RO": 3507,
      "Split": 3508,
      "l1": 3509,
      "clar": 3510,
      "versionchanged": 3511,
      "built": 3512,
      "_if": 3513,
      "_dir": 3514,
      "ache": 3515,
      "atified": 3516,
      "plement": 3517,
      "automat": 3518,
      "scatter": 3519,
      "Removed": 3520,
      "issparse": 3521,
      "advanced": 3522,
      "bi": 3523,
      "revert": 3524,
      "testclient": 3525,
      "numeric": 3526,
      "syn": 3527,
      "newton": 3528,
      "formatting": 3529,
      "speed": 3530,
      "relative": 3531,
      "decorator": 3532,
      "query_": 3533,
      "ID": 3534,
      "test_foo": 3535,
      "Parameter": 3536,
      "performance": 3537,
      "times": 3538,
      "E_": 3539,
      "UN": 3540,
      "dependence": 3541,
      "endpoint": 3542,
      "_leaf": 3543,
      "astr": 3544,
      "reach": 3545,
      "flow": 3546,
      "_multi": 3547,
      "binn": 3548,
      "normalize": 3549,
      "astral": 3550,
      "Is": 3551,
      "computation": 3552,
      "guide": 3553,
      "Runtime": 3554,
      "equivalent": 3555,
      "aff": 3556,
      "roc_": 3557,
      "grade": 3558,
      "otherwise": 3559,
      "_skip_nested_": 3560,
      "_skip_nested_validation": 3561,
      "_parameter_": 3562,
      "ick": 3563,
      "lay": 3564,
      "iles": 3565,
      "probabilities": 3566,
      "monotonic": 3567,
      "prefer_skip_nested_validation": 3568,
      "Report": 3569,
      "146": 3570,
      "Loss": 3571,
      "inverse_transform": 3572,
      "plugins_integration": 3573,
      "];": 3574,
      "_url": 3575,
      "anyOf": 3576,
      "pickle": 3577,
      "steps": 3578,
      "ive_": 3579,
      "_scale": 3580,
      "4f": 3581,
      "Or": 3582,
      "cb": 3583,
      "ermin": 3584,
      "assum": 3585,
      "unter": 3586,
      "ources": 3587,
      "array_api_": 3588,
      "outliers": 3589,
      "METRI": 3590,
      "Get": 3591,
      "alali": 3592,
      "]))": 3593,
      "ensity": 3594,
      "pairwise_distances": 3595,
      "c5": 3596,
      "exact": 3597,
      "adjust": 3598,
      "requires": 3599,
      "(`": 3600,
      "IP": 3601,
      "ave": 3602,
      "Revert": 3603,
      "meas": 3604,
      "Select": 3605,
      "absolute": 3606,
      "indicator": 3607,
      "Mini": 3608,
      "je": 3609,
      "lr_": 3610,
      "asic": 3611,
      "Query": 3612,
      "Hist": 3613,
      "real": 3614,
      "imin": 3615,
      "cach": 3616,
      "gin": 3617,
      "review": 3618,
      "minimum": 3619,
      "ivity": 3620,
      "build_": 3621,
      "━━━━": 3622,
      "cross_val": 3623,
      "regularization": 3624,
      "Capture": 3625,
      "Hub": 3626,
      "mess": 3627,
      "rary": 3628,
      "etric": 3629,
      "y_pred_": 3630,
      "X_y": 3631,
      "vely": 3632,
      "generate_": 3633,
      "tolerance": 3634,
      "bounds": 3635,
      "legend": 3636,
      "take": 3637,
      "################################": 3638,
      "afe": 3639,
      "prag": 3640,
      "void": 3641,
      "_y": 3642,
      "pydantic": 3643,
      "empl": 3644,
      "figure": 3645,
      "check_random_state": 3646,
      "_predict": 3647,
      "List": 3648,
      "either": 3649,
      "sens": 3650,
      "model_": 3651,
      "across": 3652,
      "Ali": 3653,
      "_is": 3654,
      "ignored": 3655,
      "ExceptionGroup": 3656,
      "ORS": 3657,
      "f_": 3658,
      "mid": 3659,
      "thod": 3660,
      "asing": 3661,
      "fields": 3662,
      "explain": 3663,
      "learning_rate": 3664,
      "pragma": 3665,
      "MP": 3666,
      "lete": 3667,
      "ottile": 3668,
      "upper": 3669,
      "cess_": 3670,
      "tracking": 3671,
      "decimal": 3672,
      "benchmark": 3673,
      "near": 3674,
      "(\"/\")": 3675,
      "feature_names_in_": 3676,
      "Cor": 3677,
      "XX": 3678,
      "_method": 3679,
      "Method": 3680,
      "coefficients": 3681,
      "AssertionError": 3682,
      "['": 3683,
      "i_": 3684,
      "ky": 3685,
      "ters": 3686,
      "xml": 3687,
      "maximum": 3688,
      "gn": 3689,
      "transformed": 3690,
      "validate_data": 3691,
      "invo": 3692,
      "Case": 3693,
      "due": 3694,
      "round": 3695,
      "Document": 3696,
      "automated": 3697,
      "another": 3698,
      "asottile": 3699,
      "marks": 3700,
      "phan": 3701,
      "tags__": 3702,
      "6685": 3703,
      "embedding": 3704,
      "__sklearn_tags__": 3705,
      "NB": 3706,
      "_line": 3707,
      "rm": 3708,
      "urllib": 3709,
      ")[": 3710,
      "ummy": 3711,
      "lineno": 3712,
      "tree_": 3713,
      "08": 3714,
      "Batch": 3715,
      "cp": 3716,
      "ively": 3717,
      "importance": 3718,
      "Implement": 3719,
      "those": 3720,
      "3113": 3721,
      "Sequence": 3722,
      "_xp": 3723,
      "edu": 3724,
      "ift": 3725,
      "Refer": 3726,
      "ayes": 3727,
      "66853113": 3728,
      "Bayes": 3729,
      "preser": 3730,
      "_shape": 3731,
      "FO": 3732,
      "Var": 3733,
      "onger": 3734,
      "assign": 3735,
      "coefs": 3736,
      "enabled": 3737,
      "wait": 3738,
      "IO": 3739,
      "_M": 3740,
      "rais": 3741,
      "autoupdate": 3742,
      "send": 3743,
      "validat": 3744,
      "appro": 3745,
      "websocket": 3746,
      "total": 3747,
      "above": 3748,
      "56": 3749,
      ">\",": 3750,
      "SI": 3751,
      "upload": 3752,
      "lice": 3753,
      "event": 3754,
      "from_estimator": 3755,
      "kmeans": 3756,
      "lish": 3757,
      "_to_": 3758,
      "Dummy": 3759,
      "appl": 3760,
      "_stat": 3761,
      "cial": 3762,
      "allets": 3763,
      "Target": 3764,
      "resources": 3765,
      "black": 3766,
      "_dense": 3767,
      "pectral": 3768,
      "_parameter_constraints": 3769,
      "41": 3770,
      "lead": 3771,
      "Analysis": 3772,
      "redund": 3773,
      "log_loss": 3774,
      "Create": 3775,
      "da": 3776,
      "label_": 3777,
      "\"\",": 3778,
      "ater": 3779,
      "-----": 3780,
      "isson": 3781,
      "Cont": 3782,
      "environment": 3783,
      "pypi": 3784,
      "loss_": 3785,
      "_message": 3786,
      "Extra": 3787,
      "123": 3788,
      "BF": 3789,
      "`\"": 3790,
      "mer": 3791,
      "pallets": 3792,
      "ush": 3793,
      "logistic": 3794,
      "variables": 3795,
      "AttributeError": 3796,
      "Message": 3797,
      "Support": 3798,
      "_D": 3799,
      "cm": 3800,
      "apply": 3801,
      "older": 3802,
      "outcomes": 3803,
      "scaling": 3804,
      "cookies": 3805,
      "domain": 3806,
      "Head": 3807,
      "early": 3808,
      "Imput": 3809,
      "ElasticNet": 3810,
      "X_sparse": 3811,
      "x1": 3812,
      "inner": 3813,
      "_cst": 3814,
      "compatible": 3815,
      "Node": 3816,
      "Em": 3817,
      "impur": 3818,
      "oting": 3819,
      "passthrough": 3820,
      "stop": 3821,
      "missing_values": 3822,
      "Alias": 3823,
      "_of": 3824,
      "clear": 3825,
      "Cook": 3826,
      "lossary": 3827,
      "ather": 3828,
      "1d": 3829,
      "Pl": 3830,
      "cts": 3831,
      "center": 3832,
      "messages": 3833,
      "2d": 3834,
      "76": 3835,
      "gmm": 3836,
      "ire": 3837,
      "otstra": 3838,
      "kernel_": 3839,
      "smit": 3840,
      "sparse_container": 3841,
      "Body": 3842,
      "_item": 3843,
      "nn": 3844,
      "inomial": 3845,
      "orskip": 3846,
      "theta": 3847,
      "httpbin": 3848,
      "`).": 3849,
      "n_targets": 3850,
      "adap": 3851,
      "_prob": 3852,
      "makes": 3853,
      "tmpdir": 3854,
      "roc_auc": 3855,
      "*\"])": 3856,
      "false": 3857,
      "known": 3858,
      "markers": 3859,
      "cording": 3860,
      "_finite": 3861,
      "template": 3862,
      "redundant": 3863,
      "path1": 3864,
      "randint": 3865,
      "Callback": 3866,
      "write_": 3867,
      "charact": 3868,
      "squared": 3869,
      "alled": 3870,
      "MiniBatch": 3871,
      "My": 3872,
      "f4": 3873,
      "mi": 3874,
      "ification": 3875,
      "categorical_": 3876,
      "tasks": 3877,
      "sug": 3878,
      "ual_": 3879,
      "test_func": 3880,
      "d_error": 3881,
      "extension": 3882,
      "Colum": 3883,
      "wrapper": 3884,
      "89": 3885,
      "</": 3886,
      "Mapping": 3887,
      "eve": 3888,
      "hn": 3889,
      "kl": 3890,
      "coordin": 3891,
      "importorskip": 3892,
      "required_": 3893,
      ".\",": 3894,
      "rename": 3895,
      "util": 3896,
      "bootstra": 3897,
      "descent": 3898,
      "settings": 3899,
      "aver": 3900,
      "longer": 3901,
      ")))": 3902,
      "_missing": 3903,
      "{}}},": 3904,
      "Ty": 3905,
      "know": 3906,
      "nr_": 3907,
      "_sw": 3908,
      "vised": 3909,
      "get_feature_names_out": 3910,
      "inputs": 3911,
      "system": 3912,
      "neighbors_": 3913,
      "_mult": 3914,
      "serial": 3915,
      "allows": 3916,
      "global_dtype": 3917,
      "LinearRegression": 3918,
      "Li": 3919,
      "est_": 3920,
      "similar": 3921,
      "Ensure": 3922,
      "X2": 3923,
      "cy_": 3924,
      "ted_": 3925,
      "n_bins": 3926,
      "within": 3927,
      "old_": 3928,
      "interval": 3929,
      "references": 3930,
      "Patch": 3931,
      "istr": 3932,
      "ution": 3933,
      "exclude": 3934,
      "]]),": 3935,
      "filterwarnings": 3936,
      "extract": 3937,
      "row_": 3938,
      "646": 3939,
      "SVR": 3940,
      "Column": 3941,
      "Gram": 3942,
      "f1": 3943,
      "()`": 3944,
      "__get": 3945,
      "lying": 3946,
      "astic": 3947,
      "_weights": 3948,
      "effici": 3949,
      "openml": 3950,
      "METRICS": 3951,
      "_range": 3952,
      "aded": 3953,
      "ylabel": 3954,
      "arr": 3955,
      "class__": 3956,
      "who": 3957,
      "calling": 3958,
      "parts": 3959,
      "last_": 3960,
      "PEP": 3961,
      "59": 3962,
      "_results": 3963,
      "txt": 3964,
      "good": 3965,
      "Training": 3966,
      ".\")": 3967,
      "abian": 3968,
      "ilon": 3969,
      "Cookie": 3970,
      ")\"": 3971,
      "Move": 3972,
      "make_pipeline": 3973,
      "explicitly": 3974,
      "RaisesGroup": 3975,
      "*.": 3976,
      "OP": 3977,
      "wever": 3978,
      "liblinear": 3979,
      "fails": 3980,
      "encoded": 3981,
      "indptr": 3982,
      "HistGradientBoosting": 3983,
      "logger": 3984,
      "_report": 3985,
      "_sparse_": 3986,
      "median": 3987,
      "measure": 3988,
      "K_": 3989,
      "_match": 3990,
      "ource": 3991,
      "_session": 3992,
      "addo": 3993,
      "boosting": 3994,
      "cdavid": 3995,
      "lab": 3996,
      "convergence": 3997,
      "propag": 3998,
      "weak": 3999,
      "Updated": 4000,
      "faster": 4001,
      "ocab": 4002,
      "Deprecation": 4003,
      "division": 4004,
      "({": 4005,
      "RandomForest": 4006,
      "^^^^^^^^": 4007,
      "Imputer": 4008,
      "IC": 4009,
      "ste": 4010,
      "few": 4011,
      "pathlib": 4012,
      "wrapped": 4013,
      "jection": 4014,
      "construct": 4015,
      "ynomial": 4016,
      "solution": 4017,
      "exists": 4018,
      "likelihood": 4019,
      "_r": 4020,
      "===": 4021,
      "_safe": 4022,
      "__class__": 4023,
      "early_": 4024,
      "working": 4025,
      "ternal": 4026,
      "Git": 4027,
      "xlabel": 4028,
      "defs": 4029,
      "_templ": 4030,
      "mkdir": 4031,
      "legac": 4032,
      "ired": 4033,
      "}\",": 4034,
      "test_1": 4035,
      "passing": 4036,
      "tutorial00": 4037,
      "curs": 4038,
      "nonzero": 4039,
      "Clean": 4040,
      "Some": 4041,
      "ling": 4042,
      "__future": 4043,
      "isted": 4044,
      "Exc": 4045,
      "auto_examples": 4046,
      "factory": 4047,
      "LinearSVC": 4048,
      "__future__": 4049,
      "_arg": 4050,
      "jor": 4051,
      "rather": 4052,
      "tu": 4053,
      "again": 4054,
      "failing": 4055,
      "startswith": 4056,
      "write_text": 4057,
      "([\"*": 4058,
      "publish": 4059,
      "43": 4060,
      "_content": 4061,
      "eas": 4062,
      "gaussian": 4063,
      "stand": 4064,
      "upstream": 4065,
      "caller": 4066,
      "disc": 4067,
      "\"})": 4068,
      "ISC": 4069,
      "New": 4070,
      "world": 4071,
      "return_X_y": 4072,
      "ensure_": 4073,
      "_train": 4074,
      "vocab": 4075,
      "whether": 4076,
      "randomized": 4077,
      "robust": 4078,
      "(**": 4079,
      "finite": 4080,
      "junit": 4081,
      "ping": 4082,
      "_src": 4083,
      "Clust": 4084,
      "elements": 4085,
      "ny": 4086,
      "sco": 4087,
      "mutual": 4088,
      "leav": 4089,
      "rict": 4090,
      "lier": 4091,
      "iteral": 4092,
      "dependent": 4093,
      "linkage": 4094,
      "Curve": 4095,
      "DBS": 4096,
      "dtypes": 4097,
      "thre": 4098,
      "optional_": 4099,
      "HTML": 4100,
      "element": 4101,
      "pet": 4102,
      "pons": 4103,
      "path_": 4104,
      "counts": 4105,
      "pic": 4106,
      "ed_params": 4107,
      "All": 4108,
      "epsilon": 4109,
      "connectivity": 4110,
      "properly": 4111,
      "_np": 4112,
      "needs": 4113,
      "NaN": 4114,
      "87": 4115,
      "Man": 4116,
      "Skip": 4117,
      "cg": 4118,
      "ines": 4119,
      "que": 4120,
      "setattr": 4121,
      "loading": 4122,
      "Sub": 4123,
      "fall": 4124,
      "inity": 4125,
      "chol": 4126,
      "control": 4127,
      "CAN": 4128,
      "scheme": 4129,
      "Stratified": 4130,
      "accept_sparse": 4131,
      "Correct": 4132,
      "ColumnTransformer": 4133,
      "DBSCAN": 4134,
      "ie_": 4135,
      "ski": 4136,
      "subset": 4137,
      "down_": 4138,
      "record": 4139,
      "_label": 4140,
      "lbf": 4141,
      "ake8": 4142,
      "collected": 4143,
      "batch_size": 4144,
      "repeat": 4145,
      "urllib3": 4146,
      "300": 4147,
      "user_": 4148,
      "validate_params": 4149,
      "chance": 4150,
      "entries": 4151,
      "n_init": 4152,
      "fit_params": 4153,
      "manif": 4154,
      "SGDClassifier": 4155,
      "_score_": 4156,
      "non_": 4157,
      "enable_": 4158,
      "DeprecationWarning": 4159,
      "3f": 4160,
      "spa": 4161,
      "respect": 4162,
      "linspace": 4163,
      "There": 4164,
      "Process": 4165,
      "_grid": 4166,
      "complete": 4167,
      "anc": 4168,
      "...,": 4169,
      "folds": 4170,
      "MISC": 4171,
      "ges": 4172,
      "consum": 4173,
      "diagonal": 4174,
      "spar": 4175,
      "cos": 4176,
      "rength": 4177,
      "crimin": 4178,
      "shrinkage": 4179,
      "averag": 4180,
      "NM": 4181,
      "[(": 4182,
      "useful": 4183,
      "grad": 4184,
      "]}": 4185,
      "dataframe": 4186,
      "icro": 4187,
      "access": 4188,
      "general": 4189,
      "splits": 4190,
      "automatically": 4191,
      "_ctx": 4192,
      "entic": 4193,
      "agging": 4194,
      "ives": 4195,
      "\"'": 4196,
      "Future": 4197,
      "++)": 4198,
      "Bl": 4199,
      "Simple": 4200,
      "oauth": 4201,
      "0000": 4202,
      "make_regression": 4203,
      "_mem": 4204,
      "SVD": 4205,
      "kes": 4206,
      "kze": 4207,
      "field_": 4208,
      "osa": 4209,
      "load_iris": 4210,
      "_missing_": 4211,
      "balanced": 4212,
      "kzeug": 4213,
      "Hand": 4214,
      "her": 4215,
      "r2": 4216,
      "req": 4217,
      "loop": 4218,
      "book": 4219,
      "\"]),": 4220,
      "reports": 4221,
      "representation": 4222,
      "yes": 4223,
      "refit": 4224,
      "rewrite": 4225,
      "concat": 4226,
      "n_threads": 4227,
      "max_samples": 4228,
      "stats": 4229,
      "visual": 4230,
      "sugg": 4231,
      "Glossary": 4232,
      "yet": 4233,
      "plain": 4234,
      "libsvm": 4235,
      "*=": 4236,
      "pypa": 4237,
      "prepare": 4238,
      "Adds": 4239,
      "regosa": 4240,
      ")}": 4241,
      "ople": 4242,
      "Output": 4243,
      "FutureWarning": 4244,
      "rece": 4245,
      "loy": 4246,
      "made": 4247,
      "_task": 4248,
      "proxy": 4249,
      "folder": 4250,
      "Hello": 4251,
      "Ag": 4252,
      "NA": 4253,
      "ball": 4254,
      "Ensures": 4255,
      "corresponding": 4256,
      "removing": 4257,
      "AB": 4258,
      "Us": 4259,
      "_fixture": 4260,
      "`'": 4261,
      "rus": 4262,
      "Convergence": 4263,
      "Allow": 4264,
      "Clo": 4265,
      "Lars": 4266,
      "_iter": 4267,
      "rbf": 4268,
      "cluster_": 4269,
      "Notes": 4270,
      "Chang": 4271,
      "Fitted": 4272,
      "Server": 4273,
      "ately": 4274,
      "flake8": 4275,
      "404": 4276,
      "MM": 4277,
      "a4f": 4278,
      "cost": 4279,
      "Refactor": 4280,
      "additional": 4281,
      "timeout": 4282,
      "download": 4283,
      "confusion_matrix": 4284,
      "cf": 4285,
      "pan": 4286,
      "att": 4287,
      "perm": 4288,
      "device_name": 4289,
      "Monkey": 4290,
      "4be": 4291,
      "t_": 4292,
      "itself": 4293,
      "_snapshot": 4294,
      "y_proba": 4295,
      "....": 4296,
      "ific": 4297,
      "visible": 4298,
      "63": 4299,
      "7c5": 4300,
      "fpr": 4301,
      "hap": 4302,
      "dic": 4303,
      "grid_search": 4304,
      "EX": 4305,
      "oth": 4306,
      "feature_": 4307,
      "urii": 4308,
      "remainder": 4309,
      "GitHub": 4310,
      "Hot": 4311,
      "resp": 4312,
      "\"\"\",": 4313,
      "rier": 4314,
      "major": 4315,
      "delay": 4316,
      "cols": 4317,
      "cv_results_": 4318,
      "146a": 4319,
      "bootstrap": 4320,
      "More": 4321,
      "`/": 4322,
      "tov": 4323,
      "docs_src": 4324,
      "_title": 4325,
      "verbosity": 4326,
      "Windows": 4327,
      "]):": 4328,
      "ERR": 4329,
      "65646": 4330,
      "selected": 4331,
      "f446": 4332,
      "site": 4333,
      "tb": 4334,
      "tain": 4335,
      "y2": 4336,
      "_ser": 4337,
      "s_new": 4338,
      "17146a": 4339,
      "bd7c5": 4340,
      "bb65646": 4341,
      "cb17146a": 4342,
      "a4f7": 4343,
      "4be1": 4344,
      "bd7c5bb65646": 4345,
      "/#": 4346,
      "proved": 4347,
      "_cache": 4348,
      "Learning": 4349,
      "_nodes": 4350,
      "syntax": 4351,
      "Plot": 4352,
      "_config": 4353,
      "fd": 4354,
      "heel": 4355,
      "\"].": 4356,
      "sgroup": 4357,
      "whats_new": 4358,
      "provide": 4359,
      "cing": 4360,
      "Replace": 4361,
      "created": 4362,
      "OneHot": 4363,
      "evaluation": 4364,
      "seconds": 4365,
      ":.": 4366,
      "_RE": 4367,
      "_from_": 4368,
      "sil": 4369,
      "plac": 4370,
      "interaction": 4371,
      "finish": 4372,
      "inline_run": 4373,
      "You": 4374,
      "uk": 4375,
      "v3": 4376,
      "flag": 4377,
      "twisted": 4378,
      "xyz": 4379,
      "lbfgs": 4380,
      "L2": 4381,
      "_gradient": 4382,
      "many": 4383,
      "checking": 4384,
      "clf2": 4385,
      "backend": 4386,
      "best_": 4387,
      "problems": 4388,
      "_fit_context": 4389,
      "MonkeyPatch": 4390,
      "_compat": 4391,
      "mor": 4392,
      "slice": 4393,
      "test_size": 4394,
      "plex": 4395,
      "anyio": 4396,
      "improvement": 4397,
      "sphx": 4398,
      "absolute_": 4399,
      "trunc": 4400,
      "Bu": 4401,
      "decode": 4402,
      "itch": 4403,
      "expres": 4404,
      "pared": 4405,
      "TestCase": 4406,
      "newsgroup": 4407,
      "Authored": 4408,
      "DecisionTreeClassifier": 4409,
      "=-": 4410,
      "`:": 4411,
      "larg": 4412,
      "all_finite": 4413,
      "doc_": 4414,
      "posit": 4415,
      "glm": 4416,
      "OneHotEncoder": 4417,
      "Iss": 4418,
      "Count": 4419,
      "special": 4420,
      "Predict": 4421,
      "_glr_": 4422,
      "underlying": 4423,
      "sphx_glr_": 4424,
      "KNeighbors": 4425,
      "nested": 4426,
      "requested": 4427,
      "instances": 4428,
      "crash": 4429,
      "CurveDisplay": 4430,
      "Dist": 4431,
      "await": 4432,
      "ler": 4433,
      "chi": 4434,
      "fidf": 4435,
      "plat": 4436,
      "_fraction": 4437,
      "needs_": 4438,
      "catch_warnings": 4439,
      "Half": 4440,
      "Ren": 4441,
      "urrent": 4442,
      "progress": 4443,
      "floating": 4444,
      "actually": 4445,
      "sigma": 4446,
      "platform": 4447,
      "NU": 4448,
      "Ob": 4449,
      "qa": 4450,
      "tun": 4451,
      "n_informative": 4452,
      "below": 4453,
      "calle": 4454,
      "_select": 4455,
      "NumPy": 4456,
      "simplify": 4457,
      "RuntimeError": 4458,
      "enable_metadata_routing": 4459,
      "86": 4460,
      "OAuth": 4461,
      "ness": 4462,
      "Reg": 4463,
      "```": 4464,
      "splitter": 4465,
      "_home": 4466,
      "Route": 4467,
      "sent": 4468,
      "reduce": 4469,
      "permutation": 4470,
      "92": 4471,
      "ja": 4472,
      "micro": 4473,
      "rec": 4474,
      "Inst": 4475,
      "_exception": 4476,
      "ython": 4477,
      "images": 4478,
      "according": 4479,
      "Arg": 4480,
      "~~~~": 4481,
      "ICAgICAgICAgICAg": 4482,
      "'\"": 4483,
      ".{": 4484,
      "Other": 4485,
      "vate": 4486,
      "ware": 4487,
      "vidual": 4488,
      "binned": 4489,
      "sphx_glr_auto_examples": 4490,
      "sl": 4491,
      "alloc": 4492,
      "edge": 4493,
      "()),": 4494,
      "runner": 4495,
      "patches": 4496,
      "Confli": 4497,
      "String": 4498,
      "signature": 4499,
      "lling": 4500,
      "toml": 4501,
      "ConvergenceWarning": 4502,
      "L1": 4503,
      "itz": 4504,
      "calibration": 4505,
      "impurity": 4506,
      "ute": 4507,
      "ump": 4508,
      "newaxis": 4509,
      "running": 4510,
      "openapi_schema": 4511,
      "infrequent": 4512,
      "inline_snapshot": 4513,
      "categorical_features": 4514,
      "much": 4515,
      "rozen": 4516,
      "box": 4517,
      "make_b": 4518,
      "Example": 4519,
      "cython": 4520,
      "variance_": 4521,
      "strip": 4522,
      "original_": 4523,
      "Namespace": 4524,
      "94": 4525,
      "Jo": 4526,
      "Wor": 4527,
      "density": 4528,
      "mp": 4529,
      "seem": 4530,
      "ized_": 4531,
      "transformer_": 4532,
      "requirements": 4533,
      "modified": 4534,
      "93": 4535,
      "_args": 4536,
      "mall": 4537,
      "_scope": 4538,
      "rich": 4539,
      "live": 4540,
      "contents": 4541,
      "allowed": 4542,
      "whats": 4543,
      "_2d": 4544,
      "_centers": 4545,
      "sensitive": 4546,
      "\"<": 4547,
      "Sample": 4548,
      "none": 4549,
      "your": 4550,
      "Int": 4551,
      "implemented": 4552,
      "written": 4553,
      "Near": 4554,
      "aries": 4555,
      "define": 4556,
      "input_tags": 4557,
      "translations": 4558,
      "greater": 4559,
      "numerical": 4560,
      "Custom": 4561,
      "process_": 4562,
      "routed_params": 4563,
      "render": 4564,
      "decre": 4565,
      "response_class": 4566,
      "highlight": 4567,
      "against": 4568,
      "Nearest": 4569,
      "fy": 4570,
      "wheel": 4571,
      "ism": 4572,
      "conver": 4573,
      "scan": 4574,
      "noqa": 4575,
      "variances": 4576,
      "probabl": 4577,
      "_warning": 4578,
      "counter": 4579,
      "pool": 4580,
      "ExitCode": 4581,
      "addoption": 4582,
      "06": 4583,
      "Mult": 4584,
      "Match": 4585,
      "PRE": 4586,
      "Spec": 4587,
      "}:": 4588,
      "iguous": 4589,
      "mean_square": 4590,
      "specify": 4591,
      "klass": 4592,
      "NMF": 4593,
      "54": 4594,
      "ention": 4595,
      "as_frame": 4596,
      "Generate": 4597,
      "resolution": 4598,
      "Issue": 4599,
      "ES": 4600,
      "Form": 4601,
      "RFE": 4602,
      "d2": 4603,
      "cosmit": 4604,
      "macro": 4605,
      "jeremie": 4606,
      "Conflicts": 4607,
      "02": 4608,
      "07": 4609,
      "dle": 4610,
      "precompute": 4611,
      "obtain": 4612,
      "matches": 4613,
      "subsample": 4614,
      "beta_": 4615,
      "words": 4616,
      "Time": 4617,
      "_format": 4618,
      "ingle": 4619,
      "data_": 4620,
      "iterable": 4621,
      "deviance": 4622,
      "conda": 4623,
      "estimate": 4624,
      "behaviour": 4625,
      "Be": 4626,
      "esky": 4627,
      "n_outputs": 4628,
      "ifact": 4629,
      "ampling": 4630,
      "p_val": 4631,
      "artifact": 4632,
      "ticks": 4633,
      "nearest": 4634,
      "applied": 4635,
      "leaves": 4636,
      "manifold": 4637,
      "coo": 4638,
      "travis": 4639,
      "agg": 4640,
      "model_name": 4641,
      "figsize": 4642,
      "dependant": 4643,
      "supports": 4644,
      "discret": 4645,
      "optimization": 4646,
      "medi": 4647,
      "stract": 4648,
      "average_precision": 4649,
      "_not_": 4650,
      "App": 4651,
      "_H": 4652,
      "hessian": 4653,
      "And": 4654,
      "LL": 4655,
      "bp": 4656,
      "delete": 4657,
      "clf1": 4658,
      "containing": 4659,
      "Mock": 4660,
      "rigger": 4661,
      "considered": 4662,
      "`)": 4663,
      "arpack": 4664,
      "_sizes": 4665,
      "share": 4666,
      "izing": 4667,
      "128": 4668,
      "l2_reg": 4669,
      "www": 4670,
      "Factor": 4671,
      "Literal": 4672,
      "_nan": 4673,
      "weed": 4674,
      "faces": 4675,
      "subplots": 4676,
      "_process": 4677,
      "latest": 4678,
      "smo": 4679,
      "turing": 4680,
      "Ab": 4681,
      "Mat": 4682,
      "adrin": 4683,
      "fitted_": 4684,
      "extend": 4685,
      "lobs": 4686,
      "normalized": 4687,
      "_none": 4688,
      "ImportError": 4689,
      "_k": 4690,
      "along": 4691,
      "enet": 4692,
      "ertia": 4693,
      "test_openapi_schema": 4694,
      "]).": 4695,
      "helper": 4696,
      "ExceptionInfo": 4697,
      "References": 4698,
      "ru": 4699,
      "rer": 4700,
      "esteve": 4701,
      "never": 4702,
      "\"][\"": 4703,
      "redential": 4704,
      "generation": 4705,
      "Union": 4706,
      "estimates": 4707,
      "detect": 4708,
      "duplicate": 4709,
      "affect": 4710,
      "autouse": 4711,
      "84": 4712,
      "RBF": 4713,
      "pin": 4714,
      "yi": 4715,
      "omer": 4716,
      "needs_py310": 4717,
      "_validate": 4718,
      "rf": 4719,
      "xdist": 4720,
      "amu": 4721,
      "export": 4722,
      "ics": 4723,
      "Repr": 4724,
      "Expect": 4725,
      "_recall": 4726,
      "python3": 4727,
      "BaseException": 4728,
      "================================================": 4729,
      "Attributes": 4730,
      "monotonic_cst": 4731,
      "C_": 4732,
      "_key": 4733,
      "ded_": 4734,
      "appe": 4735,
      "data_home": 4736,
      "APIRouter": 4737,
      "dependency_": 4738,
      "partic": 4739,
      "CSC": 4740,
      "initialization": 4741,
      "consider": 4742,
      "']": 4743,
      "jalali": 4744,
      "definit": 4745,
      "pret": 4746,
      "checkout": 4747,
      "interface": 4748,
      "statement": 4749,
      "glomer": 4750,
      "affinity": 4751,
      "make_blobs": 4752,
      "Calibr": 4753,
      "SA": 4754,
      "urther": 4755,
      "provid": 4756,
      "ices": 4757,
      "baz": 4758,
      "3465": 4759,
      "eller": 4760,
      "PLS": 4761,
      "PEP8": 4762,
      "discus": 4763,
      ")).": 4764,
      "Yurii": 4765,
      "hidden": 4766,
      "ians": 4767,
      "reprodu": 4768,
      "ended": 4769,
      "metafunc": 4770,
      "centered": 4771,
      "includes": 4772,
      "public": 4773,
      "combinations": 4774,
      "nr_class": 4775,
      "LI": 4776,
      "Rest": 4777,
      "spons": 4778,
      "param_grid": 4779,
      "ClassifierCV": 4780,
      "7725": 4781,
      "target_names": 4782,
      "min_samples_leaf": 4783,
      "-=": 4784,
      "rup": 4785,
      "atures": 4786,
      "posed": 4787,
      "Motov": 4788,
      "individual": 4789,
      "scalar": 4790,
      "401": 4791,
      "construction": 4792,
      "Implemented": 4793,
      "particular": 4794,
      "hard": 4795,
      "sep": 4796,
      "enc": 4797,
      "set_title": 4798,
      "fixing": 4799,
      "norms": 4800,
      "partial_": 4801,
      "repeated": 4802,
      "ERROR": 4803,
      "upgrade": 4804,
      "_strength": 4805,
      "Index": 4806,
      "Clar": 4807,
      "spection": 4808,
      "early_stopping": 4809,
      "Sta": 4810,
      "TS": 4811,
      "_test_": 4812,
      "p1": 4813,
      "logic": 4814,
      "idates": 4815,
      "installed": 4816,
      "set_output": 4817,
      "wrapp": 4818,
      "lette": 4819,
      "efficient": 4820,
      "34657725": 4821,
      "x2": 4822,
      "n_samples_": 4823,
      "matching": 4824,
      "Docs": 4825,
      "Plugin": 4826,
      "p_val_alias": 4827,
      ")])": 4828,
      "PAS": 4829,
      "Star": 4830,
      "Task": 4831,
      "mt": 4832,
      "sync": 4833,
      "int8": 4834,
      "outer": 4835,
      "_ind": 4836,
      "depends": 4837,
      "_cs": 4838,
      "tection": 4839,
      "private": 4840,
      "writing": 4841,
      "disabled": 4842,
      "separate": 4843,
      "mutual_info": 4844,
      "expression": 4845,
      "62": 4846,
      "_num": 4847,
      "_prior": 4848,
      "inplace": 4849,
      "chan": 4850,
      "y_prob": 4851,
      "address": 4852,
      "runo": 4853,
      "ordering": 4854,
      "rootdir": 4855,
      "Mean": 4856,
      "explan": 4857,
      "owner": 4858,
      "cv_results": 4859,
      "ovr": 4860,
      "DS": 4861,
      "Metric": 4862,
      "Ron": 4863,
      "cle": 4864,
      "wi": 4865,
      "_spec": 4866,
      "_for_": 4867,
      "validated": 4868,
      "Clustering": 4869,
      "83": 4870,
      "Part": 4871,
      "_py": 4872,
      "doctests": 4873,
      "begin": 4874,
      "============": 4875,
      "transformation": 4876,
      "[:-": 4877,
      "green": 4878,
      "invocation": 4879,
      "criminant": 4880,
      "placed": 4881,
      "cmap": 4882,
      "duration": 4883,
      "y1": 4884,
      "imilar": 4885,
      "veral": 4886,
      "\"]:": 4887,
      "namespace_": 4888,
      "istry": 4889,
      "redentials": 4890,
      "ried": 4891,
      "tru": 4892,
      "contiguous": 4893,
      "SED": 4894,
      "choice": 4895,
      "register": 4896,
      "raising": 4897,
      "04": 4898,
      "53": 4899,
      "incorrect": 4900,
      "s_path": 4901,
      "fake": 4902,
      "vice": 4903,
      "_without": 4904,
      "existing": 4905,
      "exec": 4906,
      "sequence": 4907,
      "Binar": 4908,
      "/,": 4909,
      "_array_api": 4910,
      "bump": 4911,
      "nu": 4912,
      "unnecessary": 4913,
      "__repr": 4914,
      "makeconftest": 4915,
      "distributions": 4916,
      "Header": 4917,
      "2D": 4918,
      "74": 4919,
      "ym": 4920,
      "_dot": 4921,
      "estimator_orig": 4922,
      "converted": 4923,
      "later": 4924,
      "__repr__": 4925,
      "_w": 4926,
      "mention": 4927,
      "zero_division": 4928,
      "characters": 4929,
      "happen": 4930,
      "'},": 4931,
      "som": 4932,
      "saf": 4933,
      "detection": 4934,
      "asyn": 4935,
      "n_non": 4936,
      "codecov": 4937,
      "shown": 4938,
      "\"}]": 4939,
      "children": 4940,
      "accuracy_score": 4941,
      "Iterable": 4942,
      "_extraction": 4943,
      "herit": 4944,
      "2f": 4945,
      "Bear": 4946,
      "_kernel": 4947,
      "ohe": 4948,
      "in_": 4949,
      "ples": 4950,
      "dual": 4951,
      "Invalid": 4952,
      "regex": 4953,
      "caplog": 4954,
      "gives": 4955,
      "supervised": 4956,
      "werkzeug": 4957,
      "including": 4958,
      "resolve": 4959,
      "Don": 4960,
      "IR": 4961,
      "Schema": 4962,
      "_T": 4963,
      "basic": 4964,
      "ven": 4965,
      "ane": 4966,
      "etc": 4967,
      "use_": 4968,
      "_strict": 4969,
      "runs": 4970,
      "Boost": 4971,
      "higher": 4972,
      "enough": 4973,
      "400": 4974,
      "Scope": 4975,
      "r37": 4976,
      "Init": 4977,
      "finally": 4978,
      "brute": 4979,
      "However": 4980,
      "OAuth2": 4981,
      "Bearer": 4982,
      "three": 4983,
      "tour": 4984,
      "dients": 4985,
      "perim": 4986,
      "Tests": 4987,
      "gradients": 4988,
      "difference": 4989,
      "improvements": 4990,
      "GET": 4991,
      "Minor": 4992,
      "AUTH": 4993,
      "ROC": 4994,
      "concaten": 4995,
      ")`": 4996,
      "r38": 4997,
      "sof": 4998,
      "ya": 4999,
      "parsing": 5000,
      "X_csr": 5001,
      "minim": 5002,
      "essians": 5003,
      "insert": 5004,
      "ARN": 5005,
      "amueller": 5006,
      "199": 5007,
      "PO": 5008,
      "lf": 5009,
      "maint": 5010,
      "_std": 5011,
      "addition": 5012,
      "feature_extraction": 5013,
      "flags": 5014,
      "something": 5015,
      "\"}),": 5016,
      "optimize": 5017,
      "longrepr": 5018,
      "'''": 5019,
      "_tag": 5020,
      "timedelta": 5021,
      "tempt": 5022,
      "suit": 5023,
      "Dictionary": 5024,
      "teardown_": 5025,
      "_log_proba": 5026,
      "Avoid": 5027,
      "Norm": 5028,
      "sur": 5029,
      "ince": 5030,
      "analy": 5031,
      "plug": 5032,
      "\"\")": 5033,
      "unless": 5034,
      "ax_": 5035,
      "piric": 5036,
      "_to_select": 5037,
      "inside": 5038,
      "smaller": 5039,
      "Binarizer": 5040,
      "61": 5041,
      "dy": 5042,
      "}.": 5043,
      "ale": 5044,
      "Adding": 5045,
      "account": 5046,
      "corresponds": 5047,
      "FixtureRequest": 5048,
      "reverts": 5049,
      "Fir": 5050,
      "Scor": 5051,
      "_V": 5052,
      "dest": 5053,
      "eq": 5054,
      "k_": 5055,
      "deep": 5056,
      "cian": 5057,
      "loader": 5058,
      "precision_recall": 5059,
      "Level": 5060,
      "_scalar": 5061,
      "leaf_nodes": 5062,
      "Generator": 5063,
      "cpu": 5064,
      "Manager": 5065,
      "Closes": 5066,
      "absolute_error": 5067,
      "132": 5068,
      "Bagging": 5069,
      "SO": 5070,
      "_schem": 5071,
      "subprocess": 5072,
      "dummy": 5073,
      "/=": 5074,
      "09": 5075,
      "FAI": 5076,
      "on_": 5077,
      "arbit": 5078,
      "roid": 5079,
      "front": 5080,
      "neigh": 5081,
      "board": 5082,
      "line_": 5083,
      "pluginmanager": 5084,
      "HTTPException": 5085,
      "truth": 5086,
      "_raise": 5087,
      "covar": 5088,
      "random_sample": 5089,
      "These": 5090,
      "placian": 5091,
      "warn_": 5092,
      "captured": 5093,
      "eigen_solver": 5094,
      "dbscan": 5095,
      "history": 5096,
      "hot": 5097,
      "several": 5098,
      "asci": 5099,
      "_sign": 5100,
      "iling": 5101,
      "checked": 5102,
      "move_to": 5103,
      "library": 5104,
      "ignore_warnings": 5105,
      "MLP": 5106,
      "Features": 5107,
      "included": 5108,
      "Bayesian": 5109,
      "Usage": 5110,
      "Expected": 5111,
      "_param_": 5112,
      "ql": 5113,
      "ys": 5114,
      "ïc": 5115,
      "pyproject": 5116,
      "loic": 5117,
      "prevent": 5118,
      "estimator_name": 5119,
      "ird": 5120,
      "curves": 5121,
      "input_features": 5122,
      "Loïc": 5123,
      "Format": 5124,
      "authentic": 5125,
      "simplefilter": 5126,
      "compile": 5127,
      "tempor": 5128,
      "_multilabel": 5129,
      "Termin": 5130,
      "ymail": 5131,
      "ève": 5132,
      "orent": 5133,
      "und_": 5134,
      "codes": 5135,
      "all__": 5136,
      "pact": 5137,
      "predict_log_proba": 5138,
      "Estève": 5139,
      "Result": 5140,
      "CHE": 5141,
      "Trace": 5142,
      "preprocessor": 5143,
      "Terminal": 5144,
      "72": 5145,
      ">\"": 5146,
      "Please": 5147,
      "_base": 5148,
      "_py310": 5149,
      "thes": 5150,
      "params_": 5151,
      "runtest_": 5152,
      "Const": 5153,
      "_scaled": 5154,
      "Series": 5155,
      "partial_dependence": 5156,
      "by_": 5157,
      "rfe": 5158,
      "sections": 5159,
      "secret": 5160,
      "Location": 5161,
      "mlight": 5162,
      "algorithms": 5163,
      "handle_": 5164,
      "plexity": 5165,
      "riedman": 5166,
      ")\",": 5167,
      "Jul": 5168,
      "cum": 5169,
      "win": 5170,
      "chars": 5171,
      "union": 5172,
      "data_id": 5173,
      "collector": 5174,
      "new_": 5175,
      "variant": 5176,
      "computing": 5177,
      "Hash": 5178,
      "Sw": 5179,
      "az": 5180,
      "big": 5181,
      "eled": 5182,
      "font": 5183,
      "gpr": 5184,
      "wd": 5185,
      "amily": 5186,
      "click": 5187,
      "singular": 5188,
      "legend_": 5189,
      "observ": 5190,
      "orentzen": 5191,
      "_p": 5192,
      "_classification": 5193,
      "or_": 5194,
      "rees": 5195,
      "tool": 5196,
      "_inst": 5197,
      "file_path": 5198,
      "140": 5199,
      "evaluate": 5200,
      "Each": 5201,
      "ulation": 5202,
      "clip": 5203,
      "imported": 5204,
      "aude": 5205,
      "repr_": 5206,
      "Mixture": 5207,
      "sparse_output": 5208,
      "_centered": 5209,
      "ensure_all_finite": 5210,
      "fallback": 5211,
      "chance_level": 5212,
      "_a": 5213,
      "bunch": 5214,
      "t0": 5215,
      "quick": 5216,
      "cursion": 5217,
      "blas": 5218,
      "NotImplemented": 5219,
      "drop_": 5220,
      "quantiles": 5221,
      "dimensional": 5222,
      "array_api_dispatch": 5223,
      "51": 5224,
      "Ign": 5225,
      "\\(": 5226,
      "give": 5227,
      "sampling": 5228,
      "\"\"\"\\": 5229,
      "ialize": 5230,
      "takes": 5231,
      "Security": 5232,
      "typed": 5233,
      "final_": 5234,
      "cross_val_score": 5235,
      "NAME": 5236,
      "OK": 5237,
      "Simpl": 5238,
      "UT": 5239,
      "_result": 5240,
      "km": 5241,
      "trigger": 5242,
      "arff": 5243,
      "mach": 5244,
      "vers": 5245,
      "cio": 5246,
      "cally": 5247,
      "\"}],": 5248,
      "neg_": 5249,
      "product": 5250,
      "pairwise_": 5251,
      "overrides": 5252,
      "continuous": 5253,
      "ierarch": 5254,
      "candidate": 5255,
      "Clarify": 5256,
      "ially": 5257,
      "}{": 5258,
      "edia": 5259,
      "cto": 5260,
      "__all__": 5261,
      "prom": 5262,
      "addini": 5263,
      "various": 5264,
      "256": 5265,
      "Decimal": 5266,
      "effective_": 5267,
      "euclidean_distances": 5268,
      "keywords": 5269,
      "ink": 5270,
      "arding": 5271,
      "imes": 5272,
      "ign_": 5273,
      "Link": 5274,
      "Uni": 5275,
      "_test_score": 5276,
      "helpers": 5277,
      "though": 5278,
      "increase": 5279,
      "_i": 5280,
      "jin": 5281,
      "jar": 5282,
      "2007": 5283,
      "url_": 5284,
      "terms": 5285,
      "vectorizer": 5286,
      "Traceback": 5287,
      "03": 5288,
      "IM": 5289,
      "Using": 5290,
      "Vs": 5291,
      "_F": 5292,
      "aim": 5293,
      "hol": 5294,
      "tout": 5295,
      "convent": 5296,
      "classmethod": 5297,
      "train_size": 5298,
      "assert_outcomes": 5299,
      "statistic": 5300,
      "copy_X": 5301,
      "exc_info": 5302,
      "curve_kwargs": 5303,
      "Shuffle": 5304,
      "DecisionTreeRegressor": 5305,
      "_status": 5306,
      "asyncio": 5307,
      "Here": 5308,
      "Spectral": 5309,
      "[],": 5310,
      "gers": 5311,
      "enforce": 5312,
      "amo": 5313,
      "amil": 5314,
      "functo": 5315,
      "Incre": 5316,
      "hoo": 5317,
      "metric_params": 5318,
      "relation": 5319,
      "suf": 5320,
      "spam": 5321,
      "_task_": 5322,
      "larger": 5323,
      "First": 5324,
      "5e": 5325,
      "Pol": 5326,
      "_true": 5327,
      "ep_": 5328,
      "yy": 5329,
      "roc": 5330,
      "_single": 5331,
      "\"][": 5332,
      "CLN": 5333,
      "unique_id": 5334,
      "fetch_openml": 5335,
      "periment": 5336,
      "gap": 5337,
      "altern": 5338,
      "test_2": 5339,
      "col_": 5340,
      "max_leaf_nodes": 5341,
      "Chin": 5342,
      "registered": 5343,
      "_categories": 5344,
      "cholesky": 5345,
      "callee": 5346,
      "AM": 5347,
      "_only": 5348,
      "naming": 5349,
      "param_name": 5350,
      "dataclasses": 5351,
      "file_": 5352,
      "avg": 5353,
      "deploy": 5354,
      "NOT": 5355,
      "whites": 5356,
      "82": 5357,
      "aBoost": 5358,
      "oom": 5359,
      "ogram": 5360,
      "_sort": 5361,
      "_same": 5362,
      "moid": 5363,
      "AdaBoost": 5364,
      "routes": 5365,
      "fit_predict": 5366,
      "akes": 5367,
      "Weight": 5368,
      "john": 5369,
      "OneVs": 5370,
      "Travis": 5371,
      "ovo": 5372,
      "mean_squared_error": 5373,
      "73": 5374,
      "SU": 5375,
      "gonal": 5376,
      "nose": 5377,
      "bayes": 5378,
      "displa": 5379,
      "partition": 5380,
      "indirect": 5381,
      "150": 5382,
      "NotFitted": 5383,
      "fully": 5384,
      "constructor_name": 5385,
      "suggest": 5386,
      "display_": 5387,
      "Tok": 5388,
      "Wr": 5389,
      "renamed": 5390,
      "resid": 5391,
      "rot": 5392,
      "get_params": 5393,
      "Decor": 5394,
      "pytest_runtest_": 5395,
      "directories": 5396,
      "thogonal": 5397,
      "dimensions": 5398,
      "ALL": 5399,
      "Poisson": 5400,
      "appropri": 5401,
      "neighbors_graph": 5402,
      "n_nonzero_": 5403,
      "pluggy": 5404,
      "Ignored": 5405,
      "functools": 5406,
      "NotFittedError": 5407,
      "FF": 5408,
      "KB": 5409,
      "PD": 5410,
      "SS": 5411,
      "Since": 5412,
      "_diff": 5413,
      "_encoder": 5414,
      "ien": 5415,
      "isotonic": 5416,
      "loaded": 5417,
      "linest": 5418,
      "_include": 5419,
      "markup": 5420,
      "activ": 5421,
      "deprecate": 5422,
      "header_": 5423,
      "setuptools": 5424,
      "Web": 5425,
      "svd_solver": 5426,
      "fill_": 5427,
      "seems": 5428,
      "NotImplementedError": 5429,
      "frozen": 5430,
      "lap": 5431,
      "zh": 5432,
      "itt": 5433,
      "dedent": 5434,
      "axs": 5435,
      "backward": 5436,
      "until": 5437,
      "find_": 5438,
      "RaisesExc": 5439,
      "Async": 5440,
      "RandomForestClassifier": 5441,
      "_testing": 5442,
      "_rank": 5443,
      "hero": 5444,
      "import_module": 5445,
      "dist_": 5446,
      "copy_": 5447,
      "first_": 5448,
      "Like": 5449,
      "labeled": 5450,
      "AUTHORS": 5451,
      "52": 5452,
      "Bunch": 5453,
      "X1": 5454,
      "_string": 5455,
      "ira": 5456,
      "contour": 5457,
      "cluster_centers": 5458,
      "ordered": 5459,
      "fspath": 5460,
      "Changed": 5461,
      "Chinese": 5462,
      "WIP": 5463,
      "vant": 5464,
      "rection": 5465,
      "chmid": 5466,
      "tocol": 5467,
      "ulary": 5468,
      "=\"/": 5469,
      "---------": 5470,
      "`,)": 5471,
      "_svd": 5472,
      "grid_resolution": 5473,
      "Determin": 5474,
      "langu": 5475,
      "clarify": 5476,
      "Found": 5477,
      "SK": 5478,
      "isnan": 5479,
      "assume": 5480,
      "X_xp": 5481,
      "dims": 5482,
      "generate_unique_id": 5483,
      "tuples": 5484,
      "Jer": 5485,
      "Ma": 5486,
      "Port": 5487,
      "Sen": 5488,
      "email": 5489,
      "ogrisel": 5490,
      "slight": 5491,
      "selector": 5492,
      "alving": 5493,
      "covariances": 5494,
      "quot": 5495,
      "bin_": 5496,
      "filters": 5497,
      "count_": 5498,
      "making": 5499,
      "concatenate": 5500,
      "chmidt": 5501,
      ")`.": 5502,
      "110": 5503,
      "PAT": 5504,
      "[::": 5505,
      "ud": 5506,
      "erged": 5507,
      "recomm": 5508,
      "plus": 5509,
      "elastic": 5510,
      "arg1": 5511,
      ").\"\"\"": 5512,
      "p_alias": 5513,
      "operation_id": 5514,
      "Iterator": 5515,
      "explained_": 5516,
      "roc_auc_score": 5517,
      "Blue": 5518,
      "rerun": 5519,
      "Julien": 5520,
      ")[:,": 5521,
      "Oper": 5522,
      "_norm": 5523,
      "ground": 5524,
      "pot": 5525,
      "retries": 5526,
      "Load": 5527,
      "LabelBinarizer": 5528,
      "body_model_name": 5529,
      "━━━━━━━━": 5530,
      "amount": 5531,
      "114": 5532,
      "Bar": 5533,
      "Sci": 5534,
      "r6": 5535,
      "pline": 5536,
      "textwrap": 5537,
      "Parser": 5538,
      "attrs": 5539,
      "Stat": 5540,
      "candidates": 5541,
      "MiniBatchKMeans": 5542,
      "legacy": 5543,
      "scopes": 5544,
      "PASSED": 5545,
      "Ronny": 5546,
      "_bound": 5547,
      "push": 5548,
      "windows": 5549,
      "independent": 5550,
      "001": 5551,
      "dual_": 5552,
      "_redirect": 5553,
      "Parallel": 5554,
      "nschmidt": 5555,
      "shows": 5556,
      "Authorization": 5557,
      "fannschmidt": 5558,
      "gbm": 5559,
      "CountVectorizer": 5560,
      "Rename": 5561,
      "Normal": 5562,
      "/*": 5563,
      ":\\": 5564,
      "=\"\"\"": 5565,
      "Event": 5566,
      "tp": 5567,
      "lex": 5568,
      "neither": 5569,
      "wording": 5570,
      "module_name": 5571,
      "GaussianProcess": 5572,
      "consider_": 5573,
      "PYTEST": 5574,
      "LDA": 5575,
      "Embed": 5576,
      "explanation": 5577,
      "ShuffleSplit": 5578,
      "WARN": 5579,
      "_convert": 5580,
      "jjer": 5581,
      "test_get_": 5582,
      "pow": 5583,
      "weighted_": 5584,
      "items_": 5585,
      "(\"/\",": 5586,
      "locals": 5587,
      "contributing": 5588,
      "coordinate": 5589,
      "richlet": 5590,
      "discussion": 5591,
      "jjerphan": 5592,
      "Got": 5593,
      "Xy": 5594,
      "elect": 5595,
      "further": 5596,
      "hing": 5597,
      "y_type": 5598,
      "phinx": 5599,
      "lists": 5600,
      "houet": 5601,
      "20newsgroup": 5602,
      "spelling": 5603,
      "proxies": 5604,
      "accard": 5605,
      "MetadataRouter": 5606,
      "introduce": 5607,
      "linting": 5608,
      "ascii": 5609,
      "Blueprint": 5610,
      ".\\": 5611,
      "Cython": 5612,
      "Voting": 5613,
      "fraction": 5614,
      "tic": 5615,
      "tend": 5616,
      "X_df": 5617,
      "issub": 5618,
      "`.\"\"\"": 5619,
      "Leave": 5620,
      "polation": 5621,
      "_indexing": 5622,
      "Source": 5623,
      "_no_change": 5624,
      "approximation": 5625,
      "phanion": 5626,
      "Jerphanion": 5627,
      "'\\": 5628,
      "CK": 5629,
      "hub": 5630,
      "ose": 5631,
      "upy": 5632,
      "erman": 5633,
      "stored": 5634,
      "amin": 5635,
      "people": 5636,
      "nots": 5637,
      "Updat": 5638,
      "scikits": 5639,
      "capturing": 5640,
      "covariance_": 5641,
      "optimal": 5642,
      "vocabulary": 5643,
      "sag": 5644,
      "img": 5645,
      "pypy": 5646,
      "requency": 5647,
      "dict_": 5648,
      "{\"$": 5649,
      "login": 5650,
      "angle": 5651,
      "Items": 5652,
      "polynomial": 5653,
      "flatten": 5654,
      "layout": 5655,
      "oauth2": 5656,
      "Partial": 5657,
      "Pfannschmidt": 5658,
      "_length": 5659,
      "eg": 5660,
      "f2": 5661,
      "fabian": 5662,
      "asser": 5663,
      "_sp": 5664,
      "getini": 5665,
      "ica": 5666,
      "make_scorer": 5667,
      "feature_selection": 5668,
      "variate": 5669,
      "grad_": 5670,
      "kenne": 5671,
      "relevant": 5672,
      "Optional": 5673,
      "dleware": 5674,
      "reproduci": 5675,
      "yahoo": 5676,
      "whitespace": 5677,
      "Over": 5678,
      "_types": 5679,
      "ael": 5680,
      "draw": 5681,
      "hide": 5682,
      "pers": 5683,
      "ren_": 5684,
      "std_": 5685,
      "abstract": 5686,
      "apes": 5687,
      "_fn": 5688,
      "operator": 5689,
      "n_iter_no_change": 5690,
      "_fit_task_": 5691,
      "children_": 5692,
      "therefore": 5693,
      "_unset": 5694,
      "cross_validate": 5695,
      "aaaa": 5696,
      "CLAS": 5697,
      "OSError": 5698,
      "HistGradientBoostingRegressor": 5699,
      "threitz": 5700,
      "Multinomial": 5701,
      "mediate": 5702,
      "arbitrary": 5703,
      "kennethreitz": 5704,
      "\">": 5705,
      "INT": 5706,
      "ION": 5707,
      "Merged": 5708,
      "vstack": 5709,
      "x0": 5710,
      "}),": 5711,
      "()[\"": 5712,
      "get_xp": 5713,
      "120": 5714,
      "regarding": 5715,
      "Convert": 5716,
      "started": 5717,
      "Enable": 5718,
      "include_router": 5719,
      "Raise": 5720,
      "kow": 5721,
      "weedie": 5722,
      "CSC_CONTAINERS": 5723,
      "appropriate": 5724,
      "Embedding": 5725,
      "'`": 5726,
      "slow": 5727,
      "v_": 5728,
      "star": 5729,
      "external": 5730,
      "qual": 5731,
      "olf": 5732,
      "fix_": 5733,
      "poisson": 5734,
      "depending": 5735,
      "ClassSVM": 5736,
      "workflow": 5737,
      "handled": 5738,
      "from_predictions": 5739,
      "refactoring": 5740,
      "assertout": 5741,
      "'``": 5742,
      "_group": 5743,
      "lw": 5744,
      "lars": 5745,
      "invert": 5746,
      "inherit": 5747,
      "rap": 5748,
      "experiment": 5749,
      "([(\"": 5750,
      "_ids": 5751,
      "empty_": 5752,
      "----------------------------------------------------------------": 5753,
      "polars": 5754,
      "Detail": 5755,
      "laz": 5756,
      "Content": 5757,
      "adapter": 5758,
      "chi2": 5759,
      "EST": 5760,
      "Small": 5761,
      "[(\"": 5762,
      "}\\": 5763,
      "itted": 5764,
      "verify": 5765,
      "X_binned": 5766,
      "perplexity": 5767,
      "visit": 5768,
      "Now": 5769,
      "Radius": 5770,
      "decrease": 5771,
      "assertoutcome": 5772,
      "RAN": 5773,
      "_pre": 5774,
      "_response": 5775,
      "rb": 5776,
      "thus": 5777,
      "diction": 5778,
      "documents": 5779,
      "outside": 5780,
      "outdated": 5781,
      "circ": 5782,
      "issing": 5783,
      "MultiTask": 5784,
      "Socket": 5785,
      "Defined": 5786,
      "parametrized": 5787,
      "whole": 5788,
      "wrapped_": 5789,
      "inspection": 5790,
      "ampler": 5791,
      "paste": 5792,
      "length_scale": 5793,
      "Maximum": 5794,
      "whiten": 5795,
      "known_": 5796,
      "StratifiedKFold": 5797,
      "LAS": 5798,
      "Tfidf": 5799,
      "_at": 5800,
      "_defaults": 5801,
      "band": 5802,
      "echo": 5803,
      "frequent": 5804,
      "tpr": 5805,
      "escap": 5806,
      "stuff": 5807,
      "touch": 5808,
      "resource": 5809,
      "olve": 5810,
      "____": 5811,
      "boost": 5812,
      "_man": 5813,
      "subplot": 5814,
      "skipif": 5815,
      "places": 5816,
      "_dim": 5817,
      "Discret": 5818,
      "send_": 5819,
      "estimated": 5820,
      "modify": 5821,
      "parametrization": 5822,
      "TIONS": 5823,
      "Agglomer": 5824,
      "Ver": 5825,
      "_pred": 5826,
      "cau": 5827,
      "gle": 5828,
      "vs_": 5829,
      "leak": 5830,
      "pyc": 5831,
      "pyx": 5832,
      "trailing": 5833,
      "error_score": 5834,
      "deriv": 5835,
      "predictor": 5836,
      "Consum": 5837,
      "ER_": 5838,
      "Requests": 5839,
      "annotation_": 5840,
      "_hessian": 5841,
      "GaussianMixture": 5842,
      "projects": 5843,
      "_svm": 5844,
      "fill_value": 5845,
      "WebSocket": 5846,
      ")``": 5847,
      "Bruno": 5848,
      "Can": 5849,
      "LAR": 5850,
      "][\"": 5851,
      "_files": 5852,
      "portion": 5853,
      "_inverse": 5854,
      "erry": 5855,
      "development": 5856,
      "equivalence": 5857,
      "_memory": 5858,
      "cfg": 5859,
      "dynam": 5860,
      "91": 5861,
      "CR": 5862,
      "Trees": 5863,
      "ares": 5864,
      "analysis": 5865,
      "deleg": 5866,
      "entire": 5867,
      "itertools": 5868,
      "transform_": 5869,
      "solve": 5870,
      "Discriminant": 5871,
      "pairs": 5872,
      "Collector": 5873,
      "LassoLars": 5874,
      "coefficient": 5875,
      "bias": 5876,
      "UsageError": 5877,
      "n_nonzero_coefs": 5878,
      "]`": 5879,
      "]},": 5880,
      "_default": 5881,
      "attempt": 5882,
      "rop": 5883,
      "__call": 5884,
      "metic": 5885,
      "feature_idx": 5886,
      "mlp": 5887,
      "Modi": 5888,
      "async_": 5889,
      "SET": 5890,
      "_categorical": 5891,
      "Apply": 5892,
      "_template_": 5893,
      "__call__": 5894,
      "Used": 5895,
      "jax": 5896,
      "not_": 5897,
      "shift": 5898,
      "_cor": 5899,
      "intermediate": 5900,
      "clf_": 5901,
      "route_": 5902,
      "Estim": 5903,
      "covariance_type": 5904,
      "mixture": 5905,
      "easier": 5906,
      "Token": 5907,
      "RonnyPfannschmidt": 5908,
      "MA": 5909,
      "Missing": 5910,
      "_labels": 5911,
      "_header": 5912,
      "_handler": 5913,
      "hstack": 5914,
      "ending": 5915,
      "127": 5916,
      "min_samples_split": 5917,
      "read_items": 5918,
      "remaining": 5919,
      "XXX": 5920,
      "Matri": 5921,
      "OO": 5922,
      "Ped": 5923,
      "fmt": 5924,
      "hierarch": 5925,
      "}'": 5926,
      "stro": 5927,
      "liers": 5928,
      "ansac": 5929,
      "argname": 5930,
      "receive": 5931,
      "ukas": 5932,
      "whatsnew": 5933,
      "Fabian": 5934,
      "GP": 5935,
      "_average": 5936,
      "cision": 5937,
      "ner_": 5938,
      "urations": 5939,
      "plotting": 5940,
      "sum_": 5941,
      "Outlier": 5942,
      "outlier": 5943,
      "csc_container": 5944,
      "probably": 5945,
      "OPTI": 5946,
      "NearestNeighbors": 5947,
      "Olive": 5948,
      "hatt": 5949,
      "ow": 5950,
      "pap": 5951,
      "rl": 5952,
      "turn": 5953,
      "viz": 5954,
      "{},": 5955,
      "oring": 5956,
      "sed_": 5957,
      "enh": 5958,
      "type_": 5959,
      "makeini": 5960,
      "gene": 5961,
      "objective": 5962,
      "Local": 5963,
      "occur": 5964,
      "Setting": 5965,
      "Configuration": 5966,
      "_and_validation_alias": 5967,
      "increasing": 5968,
      "_squared": 5969,
      "CHECK": 5970,
      "linestyle": 5971,
      "Oliveira": 5972,
      "hattan": 5973,
      "*\")": 5974,
      "Fail": 5975,
      "_Base": 5976,
      "fp": 5977,
      "zz": 5978,
      "implicit": 5979,
      "(\"\\": 5980,
      "test_optional_": 5981,
      "setenv": 5982,
      "Ref": 5983,
      "prun": 5984,
      "train_score": 5985,
      "Precision": 5986,
      "thropic": 5987,
      "identity": 5988,
      "ModuleType": 5989,
      "RadiusNeighbors": 5990,
      "*/": 5991,
      "_root": 5992,
      "dra": 5993,
      "nm": 5994,
      "squ": 5995,
      "alman": 5996,
      "psf": 5997,
      "runtime": 5998,
      "sgd": 5999,
      "****": 6000,
      "meaning": 6001,
      "Stream": 6002,
      "overload": 6003,
      "reporting": 6004,
      "Bound": 6005,
      "normalizer": 6006,
      "_scaling": 6007,
      "optimizer": 6008,
      "save": 6009,
      "Typo": 6010,
      "Spe": 6011,
      "_mark": 6012,
      "native": 6013,
      "regen": 6014,
      "fort": 6015,
      "argnames": 6016,
      "cir": 6017,
      "deselect": 6018,
      "Collect": 6019,
      "missing_value": 6020,
      "certain": 6021,
      "assignment": 6022,
      "extensions": 6023,
      "World": 6024,
      "convention": 6025,
      "_fnmatch": 6026,
      "%.": 6027,
      "_from": 6028,
      "cmd": 6029,
      "ias": 6030,
      "ja_": 6031,
      "mist": 6032,
      "pdf": 6033,
      "atively": 6034,
      "thman": 6035,
      "tested": 6036,
      "pts": 6037,
      "__version": 6038,
      "[\"/": 6039,
      "Adrin": 6040,
      "nan_": 6041,
      "processing": 6042,
      "Propag": 6043,
      "performed": 6044,
      "evaluated": 6045,
      "parallel_": 6046,
      "sphx_glr_auto_examples_": 6047,
      "handle_unknown": 6048,
      "__version__": 6049,
      "71": 6050,
      "KD": 6051,
      "_coef": 6052,
      "half": 6053,
      "tight": 6054,
      "tw_": 6055,
      "inertia": 6056,
      "assigned": 6057,
      "pls": 6058,
      "Recall": 6059,
      "noun": 6060,
      "X_test_": 6061,
      "colas": 6062,
      "file__": 6063,
      "Claude": 6064,
      "_lay": 6065,
      "field_info": 6066,
      "jinja_": 6067,
      "houette": 6068,
      "kowski": 6069,
      "Pedregosa": 6070,
      "tw_mock": 6071,
      "1D": 6072,
      "Cs": 6073,
      "Jalali": 6074,
      "ee": 6075,
      "jaccard": 6076,
      "knots": 6077,
      "lif": 6078,
      "ransac": 6079,
      "map_": 6080,
      "``'": 6081,
      "_style": 6082,
      "Adap": 6083,
      "Threshold": 6084,
      "fft": 6085,
      "ensure_2d": 6086,
      "connection": 6087,
      "_missing_values": 6088,
      "stroem": 6089,
      "Bet": 6090,
      "b_": 6091,
      "pm": 6092,
      "xi": 6093,
      "pytestbot": 6094,
      "dataclass": 6095,
      "Covariance": 6096,
      "perfect": 6097,
      "mental": 6098,
      "currently": 6099,
      "accepts": 6100,
      "finalizer": 6101,
      "internally": 6102,
      "deterministic": 6103,
      "hyperparameter": 6104,
      "Failed": 6105,
      "arrative": 6106,
      "Simplify": 6107,
      "reproducible": 6108,
      "tweak": 6109,
      "online": 6110,
      "ract": 6111,
      "empiric": 6112,
      "n_samples_X": 6113,
      "_custom": 6114,
      "_tear": 6115,
      "indexing": 6116,
      "return_distance": 6117,
      "things": 6118,
      "scripts": 6119,
      "introduced": 6120,
      "ificant": 6121,
      "appear": 6122,
      "language": 6123,
      "/).": 6124,
      ":])": 6125,
      "_0": 6126,
      "cwd": 6127,
      "pal": 6128,
      "improved": 6129,
      "compl": 6130,
      "ild_": 6131,
      "_in_schema": 6132,
      "having": 6133,
      "Chain": 6134,
      "Unset": 6135,
      "infer": 6136,
      "include_in_schema": 6137,
      "TransformerMixin": 6138,
      "histogram": 6139,
      ":\",": 6140,
      "But": 6141,
      "Bad": 6142,
      "Ele": 6143,
      "LR": 6144,
      "MDS": 6145,
      "Rob": 6146,
      "WH": 6147,
      "_doc": 6148,
      "secut": 6149,
      "omp": 6150,
      "pyupgrade": 6151,
      "ria": 6152,
      "logs": 6153,
      "ax1": 6154,
      "hould": 6155,
      "levels": 6156,
      "_functions": 6157,
      "LassoCV": 6158,
      "_cv_results": 6159,
      "record_": 6160,
      "rier_score": 6161,
      "Otherwise": 6162,
      "rupt": 6163,
      "Polynomial": 6164,
      "Boundary": 6165,
      "81": 6166,
      "Lukas": 6167,
      "_val": 6168,
      "dget": 6169,
      "zer": 6170,
      "edit": 6171,
      "isn": 6172,
      "expr": 6173,
      "consecut": 6174,
      "test_b": 6175,
      "Upgrade": 6176,
      "codeql": 6177,
      "gen_": 6178,
      "iled_": 6179,
      "125": 6180,
      "deprecations": 6181,
      "scale_": 6182,
      "effective": 6183,
      "switch": 6184,
      "builtin": 6185,
      "standar": 6186,
      "average_precision_score": 6187,
      "Matrix": 6188,
      ")\")": 6189,
      "/\":": 6190,
      "NN": 6191,
      "_32": 6192,
      "_CHECK": 6193,
      "gro": 6194,
      "ki": 6195,
      "inria": 6196,
      "reverse": 6197,
      "failed_": 6198,
      "_current": 6199,
      "_search": 6200,
      "139": 6201,
      "manhattan": 6202,
      "solvers": 6203,
      "\"/\":": 6204,
      "building": 6205,
      "sql": 6206,
      "cross_val_predict": 6207,
      "approach": 6208,
      "John": 6209,
      "l2_reg_strength": 6210,
      "Ball": 6211,
      "Benchmark": 6212,
      "Text": 6213,
      "WW": 6214,
      "_W": 6215,
      "day": 6216,
      "ham": 6217,
      "had": 6218,
      "won": 6219,
      "ings": 6220,
      "child_": 6221,
      "important": 6222,
      "test_one": 6223,
      "desired": 6224,
      "fixturedef": 6225,
      "strateg": 6226,
      "DecisionBoundary": 6227,
      "_and_device": 6228,
      "KeyError": 6229,
      "hyperparameters": 6230,
      "get_namespace_and_device": 6231,
      "Handle": 6232,
      "Object": 6233,
      "soft": 6234,
      "thesis": 6235,
      "observations": 6236,
      "Basic": 6237,
      "CD": 6238,
      "GMM": 6239,
      "_plot_": 6240,
      "c1": 6241,
      "saga": 6242,
      "}/": 6243,
      "really": 6244,
      "arily": 6245,
      "untyped": 6246,
      "ic_": 6247,
      "no_fnmatch": 6248,
      "Device": 6249,
      "fixture_": 6250,
      "130": 6251,
      "CONT": 6252,
      "twice": 6253,
      "Quant": 6254,
      "previously": 6255,
      "gaussian_process": 6256,
      "yield_": 6257,
      "_csr": 6258,
      "Lukasa": 6259,
      "DecisionBoundaryDisplay": 6260,
      "no_fnmatch_line": 6261,
      "112": 6262,
      "BLD": 6263,
      "ank": 6264,
      "ulli": 6265,
      "_sq": 6266,
      "test_required_": 6267,
      "height": 6268,
      "vide": 6269,
      "argparse": 6270,
      "capsys": 6271,
      "operations": 6272,
      "dumps": 6273,
      "debugging": 6274,
      "register_": 6275,
      "identical": 6276,
      "Hook": 6277,
      "kipedia": 6278,
      "truncation": 6279,
      "cached_": 6280,
      "rerunfailures": 6281,
      "IST": 6282,
      "PAR": 6283,
      "_per": 6284,
      "grow": 6285,
      "narrative": 6286,
      "uint32": 6287,
      "(\"\",": 6288,
      "X_np": 6289,
      "erepr": 6290,
      "multi_class": 6291,
      "_batch": 6292,
      "_routing_": 6293,
      "_cv_": 6294,
      "_ispytest": 6295,
      "SimpleImputer": 6296,
      "PATH": 6297,
      "&&": 6298,
      "_graph": 6299,
      "dask": 6300,
      "ient": 6301,
      "recursion": 6302,
      "__file__": 6303,
      "_step": 6304,
      "_model_": 6305,
      "_exc": 6306,
      "_folder": 6307,
      "Randomized": 6308,
      "multinomial": 6309,
      "lda": 6310,
      "_svmlight": 6311,
      "reduction": 6312,
      "flip": 6313,
      "TYPE_CHECK": 6314,
      "legacy_": 6315,
      "Newton": 6316,
      "EXA": 6317,
      "beta_loss": 6318,
      "smooth": 6319,
      "temporary": 6320,
      "Better": 6321,
      "TYPE_CHECKING": 6322,
      "\"[": 6323,
      ":],": 6324,
      "Halving": 6325,
      "Jar": 6326,
      "t1": 6327,
      "itu": 6328,
      "ints": 6329,
      "projection": 6330,
      "(\"*": 6331,
      "fits": 6332,
      "agger": 6333,
      "trained": 6334,
      "sole": 6335,
      "router_": 6336,
      "check_estimator": 6337,
      "finfo": 6338,
      "splitting": 6339,
      "eigenvalues": 6340,
      "encoded_": 6341,
      "_template": 6342,
      "Calibrated": 6343,
      "cluster_centers_": 6344,
      "slightly": 6345,
      "DiscriminantAnalysis": 6346,
      "Fin": 6347,
      "_one": 6348,
      "_max_": 6349,
      "bench": 6350,
      "credentials": 6351,
      "spectral": 6352,
      "ux": 6353,
      "args_": 6354,
      "hour": 6355,
      "145": 6356,
      "skipping": 6357,
      "boundary": 6358,
      "poly": 6359,
      "SGDRegressor": 6360,
      "license": 6361,
      "obtained": 6362,
      "TSNE": 6363,
      "3d": 6364,
      "_boosting": 6365,
      "holder": 6366,
      "repo": 6367,
      "replaced": 6368,
      "think": 6369,
      "paring": 6370,
      "y_val": 6371,
      "get_client": 6372,
      "Values": 6373,
      "word_": 6374,
      "array_device": 6375,
      "metaestimator": 6376,
      "138": 6377,
      "confli": 6378,
      "significant": 6379,
      "exactly": 6380,
      "definition": 6381,
      "'{": 6382,
      "Redu": 6383,
      "_and": 6384,
      "_validation": 6385,
      "_threshold": 6386,
      "uint8": 6387,
      "ores": 6388,
      "stash": 6389,
      "------": 6390,
      "n_active": 6391,
      "licy": 6392,
      "noulli": 6393,
      "Trun": 6394,
      "argmax": 6395,
      "authors": 6396,
      "list_": 6397,
      "adds": 6398,
      "unknow": 6399,
      "score_samples": 6400,
      "scorers": 6401,
      "_bit": 6402,
      "Documentation": 6403,
      "Argument": 6404,
      "PREFIX": 6405,
      "_num_samples": 6406,
      "frontend": 6407,
      "consecutive": 6408,
      "unknown_": 6409,
      "Cent": 6410,
      "EP": 6411,
      "js": 6412,
      "pil": 6413,
      "table": 6414,
      "gets": 6415,
      "why": 6416,
      "X_array": 6417,
      "funcargs": 6418,
      "loads": 6419,
      "pedregosa": 6420,
      "grammar": 6421,
      "ordinal": 6422,
      "Ord": 6423,
      "assumed": 6424,
      "CookieJar": 6425,
      "Op": 6426,
      "recent": 6427,
      "degre": 6428,
      "mod_": 6429,
      "proportion": 6430,
      "Remo": 6431,
      "_invalid": 6432,
      "ClassifierMixin": 6433,
      "basename": 6434,
      "centr": 6435,
      "hookimpl": 6436,
      "parents": 6437,
      "_1d": 6438,
      "sigmoid": 6439,
      "symmetric": 6440,
      "binarize": 6441,
      "POST": 6442,
      "BallTree": 6443,
      "]\",": 6444,
      "_node": 6445,
      "_vector": 6446,
      "`--": 6447,
      "omo": 6448,
      "theme": 6449,
      "strat": 6450,
      "d_tree": 6451,
      "resulting": 6452,
      "priors": 6453,
      "precisions_": 6454,
      "verbose_": 6455,
      "RidgeCV": 6456,
      "chunks": 6457,
      "ptron": 6458,
      "indentation": 6459,
      "_param_validation": 6460,
      "WARNING": 6461,
      "Quantile": 6462,
      "Ber": 6463,
      "\\)": 6464,
      "far": 6465,
      "mit": 6466,
      "reed": 6467,
      "thresh": 6468,
      "testcase": 6469,
      "returning": 6470,
      "contamin": 6471,
      "_capture": 6472,
      "n_features_to_select": 6473,
      "buff": 6474,
      "score_func": 6475,
      "workaround": 6476,
      "255": 6477,
      "manually": 6478,
      "callback_ctx": 6479,
      "Undefined": 6480,
      "chosen": 6481,
      "dummy_": 6482,
      "radius_": 6483,
      "huber": 6484,
      "Vers": 6485,
      "hal": 6486,
      "pure": 6487,
      "stag": 6488,
      "amed": 6489,
      "pyright": 6490,
      "rescal": 6491,
      "ceptron": 6492,
      "coding": 6493,
      "test_it": 6494,
      "X_val": 6495,
      "X_transformed": 6496,
      "check_input": 6497,
      "_cat": 6498,
      "lower_": 6499,
      "Dep": 6500,
      "linear_loss": 6501,
      "_bias": 6502,
      "cookie_": 6503,
      "_on_": 6504,
      "staticmethod": 6505,
      "oob_score": 6506,
      "Stacking": 6507,
      ":-": 6508,
      "_int": 6509,
      "_dataset": 6510,
      "edges": 6511,
      "n_alphas": 6512,
      "vals": 6513,
      "\")]": 6514,
      "__array_namespace": 6515,
      "trying": 6516,
      "structures": 6517,
      "available_if": 6518,
      "add_argument": 6519,
      "FixtureDef": 6520,
      "_params_": 6521,
      "cursive": 6522,
      "NULL": 6523,
      "Consuming": 6524,
      "LARS": 6525,
      "compli": 6526,
      "'}": 6527,
      "Line": 6528,
      "Tweedie": 6529,
      "hi": 6530,
      "hold": 6531,
      "pprint": 6532,
      "uid": 6533,
      "keep_": 6534,
      "_ini": 6535,
      "Fixing": 6536,
      "TestClass": 6537,
      "117": 6538,
      "score_": 6539,
      "writer": 6540,
      "_block": 6541,
      "precision_": 6542,
      "ITH": 6543,
      "sense": 6544,
      "outlier_": 6545,
      "leading": 6546,
      "spaces": 6547,
      "roc_curve": 6548,
      "'\",": 6549,
      "BM": 6550,
      "Len": 6551,
      "`-": 6552,
      "mom": 6553,
      "udo": 6554,
      "voting": 6555,
      "xunit": 6556,
      "anthropic": 6557,
      "exp_": 6558,
      "conditional": 6559,
      "handles": 6560,
      "l1_ratios": 6561,
      "likelihood_": 6562,
      "Updates": 6563,
      ")},": 6564,
      "Cal": 6565,
      "_al": 6566,
      "ms": 6567,
      "nbr": 6568,
      "ties": 6569,
      "wal": 6570,
      "reorder": 6571,
      "stic": 6572,
      "ung": 6573,
      "adrat": 6574,
      "vec": 6575,
      "=====": 6576,
      "test_check_": 6577,
      "ugues": 6578,
      "...)": 6579,
      "Conne": 6580,
      "_aliases": 6581,
      "stepwise": 6582,
      "JSONResponse": 6583,
      "_safe_indexing": 6584,
      "analyzer": 6585,
      "bandwidth": 6586,
      "strategies": 6587,
      "uguese": 6588,
      "German": 6589,
      "LS": 6590,
      "Rel": 6591,
      "nt": 6592,
      "pract": 6593,
      "peated": 6594,
      "cles": 6595,
      "copes": 6596,
      "valu": 6597,
      "108": 6598,
      "xpx": 6599,
      "Prepared": 6600,
      "SES": 6601,
      "_subset": 6602,
      "pages": 6603,
      "FeatureUnion": 6604,
      "adjusted_": 6605,
      "preserve": 6606,
      "OPTICS": 6607,
      "2e": 6608,
      "Aut": 6609,
      "gzip": 6610,
      "rule": 6611,
      "seudo": 6612,
      "eng": 6613,
      "chastic": 6614,
      "formul": 6615,
      "nek": 6616,
      "outcome": 6617,
      "__traceback": 6618,
      "argsort": 6619,
      "registry": 6620,
      "tech": 6621,
      "iodic": 6622,
      "reporter": 6623,
      "uniques": 6624,
      "LE_": 6625,
      "Graph": 6626,
      "estimation": 6627,
      "MultiOutput": 6628,
      "likely": 6629,
      "FunctionTransformer": 6630,
      "response_model_exclude_unset": 6631,
      "Methods": 6632,
      "converge": 6633,
      "sponsors": 6634,
      "Show": 6635,
      "Temp": 6636,
      "_tol": 6637,
      "bus": 6638,
      "mu": 6639,
      "arm": 6640,
      "announ": 6641,
      "omap": 6642,
      "_sym": 6643,
      "quote": 6644,
      "###": 6645,
      "aging": 6646,
      "vars": 6647,
      "hood": 6648,
      "118": 6649,
      "fixturedefs": 6650,
      "numpy_namespace": 6651,
      "\"})],": 6652,
      "Compon": 6653,
      "_scores_": 6654,
      "_token": 6655,
      "accepted": 6656,
      "_dtype_": 6657,
      "mission": 6658,
      "machine": 6659,
      "Portuguese": 6660,
      "_convert_container": 6661,
      "experimental": 6662,
      "adratic": 6663,
      "239": 6664,
      "Let": 6665,
      "Pe": 6666,
      "_min": 6667,
      "mes": 6668,
      "ropy": 6669,
      "track": 6670,
      "check_sample_weight": 6671,
      "http_": 6672,
      "coef0": 6673,
      "array_api_strict": 6674,
      "localhost": 6675,
      "strictly": 6676,
      "Deprecate": 6677,
      "r2_score": 6678,
      "KNeighborsClassifier": 6679,
      "OneVsRest": 6680,
      "SKIP": 6681,
      "Ordinal": 6682,
      "moment": 6683,
      "Ac": 6684,
      "home": 6685,
      "vor": 6686,
      "requestBody": 6687,
      "cipal": 6688,
      "147": 6689,
      "generic": 6690,
      "deviation": 6691,
      "137": 6692,
      "endswith": 6693,
      "LogisticRegressionCV": 6694,
      "hynek": 6695,
      "RIBU": 6696,
      "method_name": 6697,
      "RuntimeWarning": 6698,
      "affinit": 6699,
      "raisable": 6700,
      "^^^^^^^^^^^^^^^^": 6701,
      "delayed": 6702,
      "=%": 6703,
      "Exp": 6704,
      "Sampler": 6705,
      "`(": 6706,
      "dp": 6707,
      "tab": 6708,
      "instru": 6709,
      "confi": 6710,
      "doing": 6711,
      "n_output": 6712,
      "tran": 6713,
      "test_bar": 6714,
      "nothman": 6715,
      "arg2": 6716,
      "([-": 6717,
      "148": 6718,
      "136": 6719,
      "anymore": 6720,
      "changing": 6721,
      "[[]": 6722,
      "Transformed": 6723,
      "_lar": 6724,
      "collect_": 6725,
      "filenames": 6726,
      "Body_": 6727,
      "_targets": 6728,
      "_multiclass": 6729,
      "threaded": 6730,
      "process_routing": 6731,
      "contamination": 6732,
      "\"(": 6733,
      "Url": 6734,
      "X_scaled": 6735,
      "_METRICS": 6736,
      "gp": 6737,
      "gbr": 6738,
      "}}": 6739,
      "ess_": 6740,
      "andeg": 6741,
      "imetric": 6742,
      "roids": 6743,
      "coded": 6744,
      "n_repeat": 6745,
      "getting": 6746,
      "test_hello": 6747,
      "Try": 6748,
      "aux": 6749,
      "parse_version": 6750,
      "baset": 6751,
      "bincount": 6752,
      "...]": 6753,
      "Selector": 6754,
      "associ": 6755,
      "LED": 6756,
      "complexity": 6757,
      "Password": 6758,
      "symlink": 6759,
      "current_user": 6760,
      "importances_": 6761,
      "Bernoulli": 6762,
      ",))": 6763,
      "Mem": 6764,
      "RT": 6765,
      "seless": 6766,
      "gether": 6767,
      "emp_": 6768,
      "izers": 6769,
      "``-": 6770,
      "Conf": 6771,
      "writeable": 6772,
      "network": 6773,
      "template_": 6774,
      "pectral_": 6775,
      "Perform": 6776,
      "cached": 6777,
      "_DTYPE": 6778,
      "final_estimator": 6779,
      "power_": 6780,
      "hinge": 6781,
      "!!": 6782,
      "Pack": 6783,
      "Should": 6784,
      "kneighbors_graph": 6785,
      "year": 6786,
      "yml": 6787,
      "amg": 6788,
      "is_categorical": 6789,
      "defin": 6790,
      "n_labels": 6791,
      "107": 6792,
      "TestReport": 6793,
      "_mix": 6794,
      "bins_": 6795,
      "_regressor": 6796,
      "135": 6797,
      "implements": 6798,
      "176": 6799,
      "scaled": 6800,
      "include_bias": 6801,
      "csr_array": 6802,
      "seeds": 6803,
      "_check_sample_weight": 6804,
      "propagation": 6805,
      "RANS": 6806,
      "CalibratedClassifierCV": 6807,
      "announce": 6808,
      "[]]": 6809,
      "[...,": 6810,
      "gt": 6811,
      "kles": 6812,
      "vv": 6813,
      "wright": 6814,
      "ription": 6815,
      "importing": 6816,
      "protocol": 6817,
      "shuff": 6818,
      "periodic": 6819,
      "extmath": 6820,
      "get_tags": 6821,
      "button": 6822,
      "illu": 6823,
      "pied": 6824,
      "_sparse_dot": 6825,
      "([[-": 6826,
      "threading": 6827,
      "ranking_": 6828,
      "swap": 6829,
      "dimensionality": 6830,
      "AUC": 6831,
      "binary_": 6832,
      "Approx": 6833,
      "ICAgICAgICAgICAgICAgICAgICAgICAg": 6834,
      "mutual_info_score": 6835,
      "abstractmethod": 6836,
      "Length": 6837,
      "GL": 6838,
      "Pr": 6839,
      "_dist": 6840,
      "arb": 6841,
      "deal": 6842,
      "test_scores": 6843,
      "together": 6844,
      "abs_": 6845,
      "()):": 6846,
      "__dict": 6847,
      "defaultdict": 6848,
      "sock": 6849,
      "_sequ": 6850,
      "250": 6851,
      "bdt": 6852,
      "Chri": 6853,
      "Proxy": 6854,
      "semi": 6855,
      "calculate": 6856,
      "################################################################": 6857,
      "character": 6858,
      "sparkles": 6859,
      "StringIO": 6860,
      "_tags_": 6861,
      "holm": 6862,
      "reedom": 6863,
      "OneVsRestClassifier": 6864,
      "OrdinalEncoder": 6865,
      "__dict__": 6866,
      "FD": 6867,
      "HE": 6868,
      "Uses": 6869,
      "_open": 6870,
      "espan": 6871,
      "isation": 6872,
      "cherry": 6873,
      "forward": 6874,
      "tok": 6875,
      "conversion": 6876,
      "shapes": 6877,
      "byte": 6878,
      "outerr": 6879,
      "policy": 6880,
      "margin": 6881,
      "agron": 6882,
      "ax2": 6883,
      "iris_": 6884,
      "124": 6885,
      "COO": 6886,
      "root_path": 6887,
      "180": 6888,
      "ignore_": 6889,
      "integers": 6890,
      "GroupKFold": 6891,
      "going": 6892,
      "trio": 6893,
      "class_prior": 6894,
      "laplacian": 6895,
      "Naive": 6896,
      "_by_alias": 6897,
      "others": 6898,
      "Distance": 6899,
      "PreparedRequest": 6900,
      "basetemp": 6901,
      "agronholm": 6902,
      "Current": 6903,
      "Isol": 6904,
      "Ro": 6905,
      "d2_": 6906,
      "lt": 6907,
      "useless": 6908,
      "vo": 6909,
      "}.\"": 6910,
      "prepend": 6911,
      "mechan": 6912,
      "num_": 6913,
      "isect": 6914,
      "foob": 6915,
      "Address": 6916,
      "subclass": 6917,
      "149": 6918,
      "_dtypes": 6919,
      "_sklearn": 6920,
      "suite": 6921,
      "_info__": 6922,
      "lambda_": 6923,
      "trivi": 6924,
      "restore": 6925,
      "SparsePCA": 6926,
      "mismatch": 6927,
      "duplicates": 6928,
      "generate_unique_id_function": 6929,
      "__array_namespace_info__": 6930,
      "Calcul": 6931,
      "RANSAC": 6932,
      ".],": 6933,
      "\\[": 6934,
      "fra": 6935,
      "gain": 6936,
      "ior": 6937,
      "clon": 6938,
      "()]": 6939,
      "129": 6940,
      "Unknown": 6941,
      "views": 6942,
      "impute": 6943,
      "lightgbm": 6944,
      "structured": 6945,
      "configured": 6946,
      "peter": 6947,
      "discrete": 6948,
      "Initial": 6949,
      "nmf": 6950,
      "Element": 6951,
      "Version": 6952,
      "<<": 6953,
      "Nu": 6954,
      "Pri": 6955,
      "_clf": 6956,
      "_map": 6957,
      "homo": 6958,
      "lm": 6959,
      "ws": 6960,
      "inc": 6961,
      "isy": 6962,
      "minkowski": 6963,
      "metric_kwargs": 6964,
      "subdomain": 6965,
      "squared_error": 6966,
      "_for_tests": 6967,
      "_array_api_for_tests": 6968,
      "Operation": 6969,
      "Agglomerative": 6970,
      "=(\"": 6971,
      "Gael": 6972,
      "_B": 6973,
      "loo": 6974,
      "datab": 6975,
      "X_mean": 6976,
      "parseconfig": 6977,
      "basel": 6978,
      "Additional": 6979,
      "sub_": 6980,
      "hack": 6981,
      "press": 6982,
      "starting": 6983,
      "LinearModel": 6984,
      "choose": 6985,
      "denom": 6986,
      "KernelPCA": 6987,
      "column_transformer": 6988,
      "l1_reg": 6989,
      "visualization": 6990,
      "saferepr": 6991,
      "_scheme": 6992,
      "Overri": 6993,
      "deselected": 6994,
      "jinja_env": 6995,
      "foobar": 6996,
      "La": 6997,
      "]*": 6998,
      "_Unset": 6999,
      "pd_": 7000,
      "sch": 7001,
      "ylim": 7002,
      "anch": 7003,
      "raph": 7004,
      "ently": 7005,
      "entropy": 7006,
      "roll": 7007,
      "plan": 7008,
      "ational": 7009,
      "uper": 7010,
      "\")),": 7011,
      "ship": 7012,
      "cessed": 7013,
      "Adjust": 7014,
      "list_alias": 7015,
      "predictive": 7016,
      "runtest": 7017,
      "Extend": 7018,
      "coefs_": 7019,
      "validation_fraction": 7020,
      "119": 7021,
      "taken": 7022,
      "python_": 7023,
      "_exist": 7024,
      "GaussianNB": 7025,
      "DEF": 7026,
      "mixed": 7027,
      "averaged_": 7028,
      "namespace_packages": 7029,
      "starlette": 7030,
      "Propagation": 7031,
      "People": 7032,
      "Lib": 7033,
      "Mach": 7034,
      "Sphinx": 7035,
      "TING": 7036,
      "UI": 7037,
      "_html": 7038,
      "bold": 7039,
      "dt": 7040,
      "si": 7041,
      "-->": 7042,
      "imit": 7043,
      "rain": 7044,
      "unexpected": 7045,
      "elf": 7046,
      "typer": 7047,
      "patial": 7048,
      "iter_": 7049,
      "_weighted": 7050,
      "train_sizes": 7051,
      "has_": 7052,
      "115": 7053,
      "overflow": 7054,
      "_full": 7055,
      "custom_values": 7056,
      "direction": 7057,
      "LOAT": 7058,
      "MinMax": 7059,
      "redirects": 7060,
      "........": 7061,
      "consider_namespace_packages": 7062,
      "3e": 7063,
      "Cache": 7064,
      "Mention": 7065,
      "Ny": 7066,
      "Tim": 7067,
      "Xs": 7068,
      "_x": 7069,
      "cator": 7070,
      "cdf": 7071,
      "knn": 7072,
      "utdown": 7073,
      "expon": 7074,
      "console": 7075,
      "functionality": 7076,
      "svg": 7077,
      "python2": 7078,
      "root_": 7079,
      "Improved": 7080,
      "thanks": 7081,
      "456": 7082,
      "ArrayNamespace": 7083,
      "=[(\"": 7084,
      "extraction": 7085,
      "ALI": 7086,
      "cleanups": 7087,
      "method_mapping": 7088,
      "HistGradientBoostingClassifier": 7089,
      "IMAT": 7090,
      "assume_centered": 7091,
      "ESTIMAT": 7092,
      "affinity_": 7093,
      "HDBSCAN": 7094,
      "_parameters": 7095,
      "bel": 7096,
      "regress": 7097,
      "third": 7098,
      "iso": 7099,
      "ural": 7100,
      "trust": 7101,
      "setdefault": 7102,
      "randomly": 7103,
      "weights_": 7104,
      "testsu": 7105,
      "reflect": 7106,
      "subtest": 7107,
      "descript": 7108,
      "PathLike": 7109,
      "squared_": 7110,
      "_classif": 7111,
      "connected_": 7112,
      "dump": 7113,
      "force_": 7114,
      "MethodMapping": 7115,
      "whose": 7116,
      "junitxml": 7117,
      "pinball": 7118,
      "some_": 7119,
      "Constant": 7120,
      "Discretizer": 7121,
      "########################################################################": 7122,
      "Isolation": 7123,
      "mechanism": 7124,
      "Enum": 7125,
      "_thresholds": 7126,
      "card": 7127,
      "arrow": 7128,
      "stian": 7129,
      "leave": 7130,
      "reser": 7131,
      "liv": 7132,
      "y_mean": 7133,
      "fixed_": 7134,
      "ifies": 7135,
      "_steps": 7136,
      "correction": 7137,
      "cycle": 7138,
      "multipart": 7139,
      "pointwise": 7140,
      "set_config": 7141,
      "response_model_include": 7142,
      "pca_": 7143,
      "_shift": 7144,
      "positional": 7145,
      "expan": 7146,
      "GradientBoostingClassifier": 7147,
      "safe_sparse_dot": 7148,
      "_instance": 7149,
      "suggestions": 7150,
      "KBins": 7151,
      "'`,": 7152,
      ":,": 7153,
      "MB": 7154,
      "Red": 7155,
      "Roc": 7156,
      "_S": 7157,
      "_fail": 7158,
      "_compute_": 7159,
      "_enforce": 7160,
      "v4": 7161,
      "venv": 7162,
      "inator": 7163,
      "chdir": 7164,
      "entially": 7165,
      "role": 7166,
      "copied": 7167,
      "type_of": 7168,
      "test_a": 7169,
      "contact": 7170,
      "_cap": 7171,
      "however": 7172,
      "interest": 7173,
      "max_bins": 7174,
      "print_": 7175,
      "INFO": 7176,
      "nice": 7177,
      "imputation": 7178,
      "_initial": 7179,
      "restart": 7180,
      "uploadfile": 7181,
      "ired_": 7182,
      "Starlette": 7183,
      "Determines": 7184,
      "elasticnet": 7185,
      "PYTEST_": 7186,
      "instructions": 7187,
      "MinMaxScaler": 7188,
      "KBinsDiscretizer": 7189,
      "318": 7190,
      "Ig": 7191,
      "PI": 7192,
      "Square": 7193,
      "Self": 7194,
      "_update": 7195,
      "_equivalence": 7196,
      "king": 7197,
      "ones_": 7198,
      "fore_": 7199,
      "forni": 7200,
      "undo": 7201,
      "urch": 7202,
      "before_": 7203,
      "pothesis": 7204,
      "nothing": 7205,
      "virt": 7206,
      "release_": 7207,
      "aliforni": 7208,
      "funcs": 7209,
      "bugs": 7210,
      "normalization": 7211,
      "_lasso": 7212,
      "stop_": 7213,
      "signal": 7214,
      "lars_path": 7215,
      "guar": 7216,
      "_estimator_tags_": 7217,
      "sidebar": 7218,
      "mirror": 7219,
      "cosine": 7220,
      "silhouette": 7221,
      "DictionaryLearning": 7222,
      "SciPy": 7223,
      "caused": 7224,
      "PrecisionRecall": 7225,
      "associated": 7226,
      "0e": 7227,
      "ae": 7228,
      "c2": 7229,
      "car": 7230,
      "hessians": 7231,
      "lb": 7232,
      "erial": 7233,
      "erical": 7234,
      "uld_": 7235,
      "ulative": 7236,
      "expos": 7237,
      "getfixture": 7238,
      "patter": 7239,
      "virus": 7240,
      "1099": 7241,
      "min_weight": 7242,
      "_read": 7243,
      "ngram": 7244,
      "contextlib": 7245,
      "node_id": 7246,
      "_fold": 7247,
      "sessions": 7248,
      "infinite": 7249,
      "eta0": 7250,
      "FEA": 7251,
      "merged": 7252,
      "ElasticNetCV": 7253,
      "coordinate_": 7254,
      "serialization": 7255,
      "sigmavirus": 7256,
      "alternative": 7257,
      "trivial": 7258,
      "Calculate": 7259,
      "Ignore": 7260,
      "PrecisionRecallDisplay": 7261,
      "=>": 7262,
      "Amor": 7263,
      "TR": 7264,
      "_post": 7265,
      "c3": 7266,
      "ek": 7267,
      "end_": 7268,
      "impact": 7269,
      "int16": 7270,
      "import_path": 7271,
      "poster": 7272,
      "peri": 7273,
      "vary": 7274,
      "read_text": 7275,
      "closes": 7276,
      "base_loss": 7277,
      "centroid": 7278,
      "creating": 7279,
      "Artu": 7280,
      "means_": 7281,
      "evans": 7282,
      "_scale_": 7283,
      "cccc": 7284,
      "keepdims": 7285,
      "embedded": 7286,
      "total_": 7287,
      "DummyClassifier": 7288,
      "ABC": 7289,
      "doc_link": 7290,
      "Formatter": 7291,
      "authentication": 7292,
      "KDTree": 7293,
      "_enforce_estimator_tags_": 7294,
      "urchak": 7295,
      "coordinate_descent": 7296,
      "Arturo": 7297,
      "Solver": 7298,
      "URE": 7299,
      "bas": 7300,
      "ystem": 7301,
      "inconsistent": 7302,
      "n_retries": 7303,
      "descr": 7304,
      "regr": 7305,
      "cluded": 7306,
      "is_classifier": 7307,
      "403": 7308,
      "n_classes_": 7309,
      "tied": 7310,
      "ibatch": 7311,
      "_indicator": 7312,
      "labels_true": 7313,
      "_summary": 7314,
      "parallel_backend": 7315,
      "Package": 7316,
      "RocCurveDisplay": 7317,
      "_set_": 7318,
      "mp_": 7319,
      "}\".": 7320,
      "ising": 7321,
      "cls_": 7322,
      "_side": 7323,
      "transpose": 7324,
      "able_encoder": 7325,
      "jsonable_encoder": 7326,
      "_reason": 7327,
      "regard": 7328,
      "zeros_": 7329,
      "rand_data": 7330,
      "pytest_configure": 7331,
      "complet": 7332,
      "builder": 7333,
      "leaf_size": 7334,
      "members": 7335,
      "removal": 7336,
      "blueprints": 7337,
      "ancest": 7338,
      "positives": 7339,
      "~~~~~~~~": 7340,
      "win32": 7341,
      "deployment": 7342,
      "explained_variance_": 7343,
      "_or": 7344,
      "_di": 7345,
      "ine_": 7346,
      "inner_": 7347,
      "onical": 7348,
      "enance": 7349,
      "dead": 7350,
      "itor": 7351,
      "ceed": 7352,
      "n_train": 7353,
      "novel": 7354,
      "linewidth": 7355,
      "Upload": 7356,
      "interpre": 7357,
      "accur": 7358,
      "640": 7359,
      "TypeVar": 7360,
      "Chi": 7361,
      "reported": 7362,
      "_df": 7363,
      "updating": 7364,
      "{})": 7365,
      "SE_": 7366,
      "raw_predictions": 7367,
      "initialize": 7368,
      "templates": 7369,
      "AUL": 7370,
      "transformers_": 7371,
      "execution": 7372,
      "truncated": 7373,
      "detected": 7374,
      "HEAD": 7375,
      "DEFAUL": 7376,
      "/)": 7377,
      "KE": 7378,
      "ben": 7379,
      "dof": 7380,
      "sn": 7381,
      "pread": 7382,
      "vect": 7383,
      "key_": 7384,
      "bycol": 7385,
      "105": 7386,
      "flush": 7387,
      "ST_": 7388,
      "url_for": 7389,
      "168": 7390,
      "builds": 7391,
      "handlers": 7392,
      "_COL": 7393,
      "notebook": 7394,
      "Binary": 7395,
      "observed": 7396,
      "layer": 7397,
      "invoke": 7398,
      "NodeId": 7399,
      "SkipTest": 7400,
      "_server": 7401,
      "ittle": 7402,
      "Modifi": 7403,
      "homogene": 7404,
      "sigmavirus24": 7405,
      "230": 7406,
      "El": 7407,
      "GH": 7408,
      "LIN": 7409,
      "N_t": 7410,
      "Opt": 7411,
      "SER": 7412,
      "_make_": 7413,
      "_left": 7414,
      "test_post": 7415,
      "Coder": 7416,
      "ed_by": 7417,
      "duct": 7418,
      "sample_indices": 7419,
      "train_scores": 7420,
      "anti": 7421,
      "corr": 7422,
      "unders": 7423,
      "local_": 7424,
      "_subprocess": 7425,
      "Y_labels": 7426,
      "combination": 7427,
      "averaging": 7428,
      "Scorer": 7429,
      "quickstart": 7430,
      "Decorator": 7431,
      "VotingClassifier": 7432,
      "Verify": 7433,
      "Adapter": 7434,
      "Christian": 7435,
      "!\"": 7436,
      "\"%": 7437,
      "Categor": 7438,
      "_factory": 7439,
      "hence": 7440,
      "mse": 7441,
      "oqu": 7442,
      "concentr": 7443,
      "n_components_": 7444,
      "Recor": 7445,
      "faul": 7446,
      "([[\"": 7447,
      "subtests": 7448,
      "readable": 7449,
      "readouterr": 7450,
      "clos": 7451,
      "set_ylabel": 7452,
      "learning_curve": 7453,
      "wards": 7454,
      "suggested": 7455,
      "maintenance": 7456,
      "precision_recall_f": 7457,
      "quotes": 7458,
      "type_of_target": 7459,
      "oquaux": 7460,
      "){": 7461,
      "Bro": 7462,
      "DType": 7463,
      "Ef": 7464,
      "Ni": 7465,
      "QD": 7466,
      "UP": 7467,
      "VERS": 7468,
      "[[\"": 7469,
      "\\.": 7470,
      "cup": 7471,
      "mpl": 7472,
      "ind_": 7473,
      "only_": 7474,
      "thand": 7475,
      "pytorch": 7476,
      "clare": 7477,
      "claim": 7478,
      "els": 7479,
      "vey": 7480,
      "version_info": 7481,
      "Include": 7482,
      "_clo": 7483,
      "coef_init": 7484,
      "lines_": 7485,
      "budget": 7486,
      "overrid": 7487,
      "iew": 7488,
      "globals": 7489,
      "bugfix": 7490,
      "classifier_": 7491,
      "runpytest_subprocess": 7492,
      "events": 7493,
      "threadpool": 7494,
      "breaking": 7495,
      "active_size": 7496,
      "THON": 7497,
      "_by_tag": 7498,
      "decorators": 7499,
      "RandomForestRegressor": 7500,
      "fontsize": 7501,
      "issubclass": 7502,
      "hierarchical": 7503,
      "CONTRIBU": 7504,
      "Has": 7505,
      "Must": 7506,
      "Tags": 7507,
      "_override": 7508,
      "_dispatch": 7509,
      "dash": 7510,
      "gc": 7511,
      "ns_": 7512,
      "sor": 7513,
      "sle": 7514,
      "atives": 7515,
      "get_metadata_routing": 7516,
      "correlated": 7517,
      "curity_": 7518,
      "input_name": 7519,
      "intercept_scaling": 7520,
      "Previous": 7521,
      "TED": 7522,
      "stacklevel": 7523,
      "Dirichlet": 7524,
      "load_digits": 7525,
      "utf8": 7526,
      "topic": 7527,
      "Order": 7528,
      "Control": 7529,
      "ball_tree": 7530,
      "UTF": 7531,
      "hide__": 7532,
      "jaccard_score": 7533,
      "formula": 7534,
      "__tracebackhide__": 7535,
      "232": 7536,
      "235": 7537,
      "_000": 7538,
      "brier_score": 7539,
      "ls": 7540,
      "pert": 7541,
      "anks": 7542,
      "edo": 7543,
      "n_dof": 7544,
      "if_": 7545,
      "filled": 7546,
      "scoring_": 7547,
      "170": 7548,
      "first_by_tag": 7549,
      "Prediction": 7550,
      "_hessians": 7551,
      "Dependence": 7552,
      "breaks": 7553,
      "blocks": 7554,
      "chunk_size": 7555,
      "correspond": 7556,
      "representing": 7557,
      "LabelEncoder": 7558,
      "sqrt_sw": 7559,
      "lookup": 7560,
      "FORE": 7561,
      "Handler": 7562,
      "PluginManager": 7563,
      "wiki": 7564,
      "FAILED": 7565,
      "GaussianProcessRegressor": 7566,
      "guarant": 7567,
      "Af": 7568,
      "Drop": 7569,
      "FC": 7570,
      "Lorentzen": 7571,
      "Wolf": 7572,
      "\\]": 7573,
      "_order": 7574,
      "lorentzen": 7575,
      "roun": 7576,
      "compose": 7577,
      "extern": 7578,
      "do_": 7579,
      "intp": 7580,
      "izations": 7581,
      "X_new": 7582,
      "mini": 7583,
      "Thanks": 7584,
      "yntax": 7585,
      "_exp": 7586,
      "Always": 7587,
      "_scoring": 7588,
      "fullung": 7589,
      "badge": 7590,
      "log_file": 7591,
      "Routing": 7592,
      "FromModel": 7593,
      "GradientBoostingRegressor": 7594,
      "URLs": 7595,
      "installation": 7596,
      "xxx": 7597,
      "queries": 7598,
      "SelectFromModel": 7599,
      "middleware": 7600,
      "FOO": 7601,
      "slash": 7602,
      "Intro": 7603,
      "standardi": 7604,
      "staged_": 7605,
      "n_repeats": 7606,
      "_sequence": 7607,
      "AgglomerativeClustering": 7608,
      "Override": 7609,
      "Nystroem": 7610,
      "Squared": 7611,
      "Acc": 7612,
      "FA": 7613,
      "Lat": 7614,
      "Ledo": 7615,
      "Malloc": 7616,
      "QL": 7617,
      "curi": 7618,
      "hug": 7619,
      "xticks": 7620,
      "edian": 7621,
      "test_score": 7622,
      "for_": 7623,
      "_source": 7624,
      "_scopes": 7625,
      "admin": 7626,
      "n_bins_": 7627,
      "allery": 7628,
      "retri": 7629,
      "weight_": 7630,
      "_stack": 7631,
      "readth": 7632,
      "aliases": 7633,
      "10000": 7634,
      "copyright": 7635,
      "Params": 7636,
      "ends": 7637,
      "empty_features": 7638,
      "statements": 7639,
      "Isotonic": 7640,
      "assume_": 7641,
      "_sparse_random": 7642,
      "agger_": 7643,
      "wikipedia": 7644,
      "namespace_device": 7645,
      "_TRE": 7646,
      "maintain": 7647,
      "SSL": 7648,
      "regressors": 7649,
      "Ledoit": 7650,
      "Ax": 7651,
      "Dig": 7652,
      "_plot": 7653,
      "f0": 7654,
      "testdir": 7655,
      "tolist": 7656,
      "mary_": 7657,
      "109": 7658,
      "cially": 7659,
      "get_first_by_tag": 7660,
      "design": 7661,
      "_mse": 7662,
      "ighlight": 7663,
      "126": 7664,
      "_recor": 7665,
      "generating": 7666,
      "anyway": 7667,
      "corrected": 7668,
      "_route": 7669,
      "Required": 7670,
      "include_": 7671,
      "Neighbor": 7672,
      "ranking": 7673,
      "comparing": 7674,
      "determine": 7675,
      "response_model_exclude_defaults": 7676,
      "didn": 7677,
      "anced_": 7678,
      "shared": 7679,
      "provider": 7680,
      "FAIL": 7681,
      "Incremental": 7682,
      "rotation": 7683,
      "ransac_estimator": 7684,
      "Robust": 7685,
      "yield_namespace_device": 7686,
      "_dtype_combinations": 7687,
      "virtual": 7688,
      "mirrors": 7689,
      "min_weight_fraction": 7690,
      "yield_namespace_device_dtype_combinations": 7691,
      ":\"": 7692,
      ";\\": 7693,
      "Desc": 7694,
      "Mut": 7695,
      "Map": 7696,
      "OU": 7697,
      "Tuple": 7698,
      "gbdt": 7699,
      "jnothman": 7700,
      "xlim": 7701,
      "}\":": 7702,
      "reconstruction": 7703,
      "res_": 7704,
      "extr": 7705,
      "fron": 7706,
      "mount": 7707,
      "lices": 7708,
      "kept": 7709,
      "ators": 7710,
      "izer_": 7711,
      "conting": 7712,
      "Cosmit": 7713,
      "errorbar": 7714,
      "transformed_": 7715,
      "desp": 7716,
      "svc": 7717,
      "gressive": 7718,
      "Moved": 7719,
      "scores_": 7720,
      "_paths": 7721,
      "presents": 7722,
      "rootpath": 7723,
      "wrap_": 7724,
      "_lars": 7725,
      "strip_": 7726,
      "mapper": 7727,
      "imputed": 7728,
      "DEBUG": 7729,
      "CHANGES": 7730,
      "misc": 7731,
      "population": 7732,
      "fetch_20newsgroup": 7733,
      "best_estimator_": 7734,
      "wheels": 7735,
      "_multilabel_classification": 7736,
      "likelihood_ratio": 7737,
      "denominator": 7738,
      "ancestor": 7739,
      "214": 7740,
      "Dir": 7741,
      "Down": 7742,
      "Pdb": 7743,
      "RBM": 7744,
      "_option": 7745,
      "`[": 7746,
      "lil": 7747,
      "ved_": 7748,
      "atim": 7749,
      "toy": 7750,
      "cogn": 7751,
      "_solve": 7752,
      "often": 7753,
      "efan": 7754,
      "api_if": 7755,
      "readme": 7756,
      "actual_": 7757,
      "category_": 7758,
      "Compare": 7759,
      "allowed_": 7760,
      "normalized_": 7761,
      "ularization": 7762,
      "_subtasks": 7763,
      "eval_gradient": 7764,
      "distributed": 7765,
      "cross_validation": 7766,
      "ATA": 7767,
      "chunked": 7768,
      "sequences": 7769,
      "randomized_svd": 7770,
      "ign_api_if": 7771,
      "recommended": 7772,
      "buffer": 7773,
      "veyor": 7774,
      "After": 7775,
      "ign_api_if_sparse": 7776,
      "*)": 7777,
      "377": 7778,
      "Action": 7779,
      "ED": 7780,
      "GB": 7781,
      "IG": 7782,
      "Pos": 7783,
      "View": 7784,
      "_build_": 7785,
      "d6": 7786,
      "durations": 7787,
      "mur": 7788,
      "spl": 7789,
      "van": 7790,
      "reconstruct": 7791,
      "sec": 7792,
      "compared": 7793,
      "(\".": 7794,
      "=======": 7795,
      "test_request": 7796,
      "s_info": 7797,
      "__main": 7798,
      "distin": 7799,
      "floats": 7800,
      "output_": 7801,
      "204": 7802,
      "computed_": 7803,
      "shouldn": 7804,
      "_proxy": 7805,
      "CATION": 7806,
      "blank": 7807,
      "set_trace": 7808,
      "processors": 7809,
      "Preparing": 7810,
      "Interrupt": 7811,
      "task_id": 7812,
      "understand": 7813,
      "------------------------------------------------": 7814,
      "collection_": 7815,
      "Iterative": 7816,
      "indicating": 7817,
      "Deprecated": 7818,
      "Without": 7819,
      "binned_": 7820,
      "nnz": 7821,
      "user_id": 7822,
      "truncate": 7823,
      "Build": 7824,
      "Switch": 7825,
      "LeaveOne": 7826,
      "lifespan": 7827,
      "conflict": 7828,
      "stratify": 7829,
      "Auto": 7830,
      "min_weight_fraction_leaf": 7831,
      "314": 7832,
      "HO": 7833,
      "Hero": 7834,
      "Stop": 7835,
      "kdd": 7836,
      "rs": 7837,
      "s1": 7838,
      "signed": 7839,
      "security_": 7840,
      "ite_": 7841,
      "_simple": 7842,
      "n_redundant": 7843,
      "line_kw": 7844,
      "minibatch": 7845,
      "make_multilabel_classification": 7846,
      "_tuple": 7847,
      "_times": 7848,
      "irch": 7849,
      "run_and_": 7850,
      "\"]],": 7851,
      "dirs": 7852,
      "kwarg": 7853,
      "contextmanager": 7854,
      "RegressorMixin": 7855,
      "hypothesis": 7856,
      "Keyboard": 7857,
      "dddd": 7858,
      "Perceptron": 7859,
      "pairwise_distances_arg": 7860,
      "Huber": 7861,
      "Therefore": 7862,
      "suffix": 7863,
      "TfidfVectorizer": 7864,
      "mistake": 7865,
      "_layout": 7866,
      "emp_cov": 7867,
      "IsolationForest": 7868,
      "posterior": 7869,
      "__main__": 7870,
      "run_and_parse": 7871,
      ":=": 7872,
      "Tweak": 7873,
      "_options": 7874,
      "pseudo": 7875,
      "s2": 7876,
      "seg": 7877,
      "compact": 7878,
      "expand": 7879,
      "usually": 7880,
      "shutil": 7881,
      "please": 7882,
      "test_get": 7883,
      "permission": 7884,
      "logo": 7885,
      "clf3": 7886,
      "APIRoute": 7887,
      "expects": 7888,
      "variate_": 7889,
      "155": 7890,
      "BaseExceptionGroup": 7891,
      "160": 7892,
      "prob_": 7893,
      "Least": 7894,
      "return_train_score": 7895,
      "netrc": 7896,
      "]]).": 7897,
      "ARD": 7898,
      "specification": 7899,
      "tsne": 7900,
      "CLI": 7901,
      "PYTHON": 7902,
      "provides": 7903,
      "sponsor": 7904,
      "Stack": 7905,
      "happens": 7906,
      "prompt": 7907,
      "------------------------------------------------------------------------": 7908,
      "Trunc": 7909,
      "_align_api_if_sparse": 7910,
      "overridden": 7911,
      "KeyboardInterrupt": 7912,
      "310": 7913,
      "AGE": 7914,
      "UG": 7915,
      "fg": 7916,
      "zoom": 7917,
      "renaming": 7918,
      "align": 7919,
      "dif": 7920,
      "n_categories": 7921,
      "checker": 7922,
      "Theil": 7923,
      "_incre": 7924,
      "ister": 7925,
      "matched": 7926,
      "float_dtype": 7927,
      "2006": 7928,
      "flakes": 7929,
      "Child": 7930,
      "ensures": 7931,
      "playwright": 7932,
      "packaging": 7933,
      "precision_score": 7934,
      "_route_": 7935,
      "Projection": 7936,
      "================================================================": 7937,
      "timing": 7938,
      "approximate": 7939,
      "benchmarks": 7940,
      "preserved": 7941,
      "cumulative": 7942,
      "_fit_task_end": 7943,
      "inverted_": 7944,
      "squares": 7945,
      "Components": 7946,
      "zeros_like": 7947,
      "Categorical": 7948,
      "CONTRIBUTING": 7949,
      "brier_score_loss": 7950,
      "(``": 7951,
      "ATE": 7952,
      "Fil": 7953,
      "Kore": 7954,
      "Pa": 7955,
      "]\"": 7956,
      "ius": 7957,
      "lst": 7958,
      "nk": 7959,
      "nca": 7960,
      "ui": 7961,
      "en_": 7962,
      "demon": 7963,
      "clus": 7964,
      "_su": 7965,
      "ellow": 7966,
      "mapped": 7967,
      "frames": 7968,
      "noisy": 7969,
      "Indic": 7970,
      "svd_": 7971,
      "134": 7972,
      "finding": 7973,
      "cluster_size": 7974,
      "set_xlabel": 7975,
      "differences": 7976,
      "opts": 7977,
      "SGDO": 7978,
      "cats": 7979,
      "permutation_": 7980,
      "calculated": 7981,
      "observe": 7982,
      "reached": 7983,
      "DummyRegressor": 7984,
      "tutorial001_": 7985,
      "YuriiMotov": 7986,
      "_sorted": 7987,
      "dynamic": 7988,
      "paper": 7989,
      "PolynomialFeatures": 7990,
      "Machine": 7991,
      "ones_like": 7992,
      "accurate": 7993,
      "Korean": 7994,
      ",\"": 7995,
      "CT": 7996,
      "Gmax": 7997,
      "Gamma": 7998,
      "Russian": 7999,
      "Zoom": 8000,
      "_callback": 8001,
      "hat": 8002,
      "kneighbors": 8003,
      "png": 8004,
      "atis": 8005,
      "adam": 8006,
      "doi": 8007,
      "_weighted_": 8008,
      "_tw": 8009,
      "anything": 8010,
      "conftest_": 8011,
      "19500": 8012,
      "ability_": 8013,
      "return_n_iter": 8014,
      "298": 8015,
      "sqr": 8016,
      "_union": 8017,
      "website": 8018,
      "Bytes": 8019,
      "ccp_": 8020,
      "Power": 8021,
      "roben": 8022,
      "caching": 8023,
      "SIFI": 8024,
      "_dense_sparse": 8025,
      "f1_score": 8026,
      "sparsity": 8027,
      "dependency_overrides": 8028,
      "drop_intermediate": 8029,
      "PartialDependence": 8030,
      "CLASSIFI": 8031,
      "Estimated": 8032,
      "tight_layout": 8033,
      "novelty": 8034,
      "UploadFile": 8035,
      "PartialDependenceDisplay": 8036,
      "215": 8037,
      "234": 8038,
      "Post": 8039,
      "Syntax": 8040,
      "SQL": 8041,
      "_est": 8042,
      "_prefix": 8043,
      "glo": 8044,
      "ris": 8045,
      "tf": 8046,
      "orthogonal": 8047,
      "data_path": 8048,
      "izmor": 8049,
      "X_dense": 8050,
      "duce": 8051,
      "sample_": 8052,
      "series": 8053,
      "reading": 8054,
      "144": 8055,
      "tail": 8056,
      "causes": 8057,
      "typically": 8058,
      "Warnings": 8059,
      "partial_fit_": 8060,
      "Logger": 8061,
      "Prob": 8062,
      "pytest_addoption": 8063,
      "What": 8064,
      "media": 8065,
      "covered": 8066,
      "attach": 8067,
      "feature_importances_": 8068,
      "Matching": 8069,
      "RFECV": 8070,
      "Timeout": 8071,
      "aneous": 8072,
      "fill_between": 8073,
      "eggs": 8074,
      "grower": 8075,
      "_svmlight_file": 8076,
      "ESTIMATORS": 8077,
      "109919500": 8078,
      "IterativeImputer": 8079,
      "kddcup": 8080,
      "(())": 8081,
      "299": 8082,
      "Back": 8083,
      "ENT": 8084,
      "Named": 8085,
      "_fix": 8086,
      "_metric": 8087,
      "_lib": 8088,
      "cal_": 8089,
      "hess": 8090,
      "zizmor": 8091,
      "rev": 8092,
      "deci": 8093,
      "elli": 8094,
      "trim": 8095,
      "stratified": 8096,
      "__module": 8097,
      "item__": 8098,
      "ipca": 8099,
      "_cg": 8100,
      "access_": 8101,
      "ERN": 8102,
      "_freedom": 8103,
      "starts": 8104,
      "rand_score": 8105,
      "gradient_out": 8106,
      "sorted_": 8107,
      "member": 8108,
      "great": 8109,
      "penalized": 8110,
      "eye": 8111,
      "})\"": 8112,
      "determined": 8113,
      "MPLE": 8114,
      "Instead": 8115,
      "Constraint": 8116,
      "baseline": 8117,
      "anchor": 8118,
      "patterns": 8119,
      "__module__": 8120,
      "*\\": 8121,
      "266": 8122,
      "GS": 8123,
      "Sto": 8124,
      "_set": 8125,
      "_call": 8126,
      "_mock": 8127,
      "a1": 8128,
      "ban": 8129,
      "sid": 8130,
      "sizes": 8131,
      "uv": 8132,
      "inliers": 8133,
      "err_": 8134,
      "atleast": 8135,
      "ital": 8136,
      "amp": 8137,
      "valence": 8138,
      "named_": 8139,
      "vie": 8140,
      "X_offset": 8141,
      "parsed": 8142,
      "_infrequent": 8143,
      "error_message": 8144,
      "104": 8145,
      "appveyor": 8146,
      "_ties": 8147,
      "dists": 8148,
      "bin_idx": 8149,
      "2000": 8150,
      "flu": 8151,
      "y_true_": 8152,
      "centroids": 8153,
      "level1": 8154,
      "deprecated_": 8155,
      "Algorithm": 8156,
      "allow_nan": 8157,
      "factories": 8158,
      "left_": 8159,
      "full_": 8160,
      "extrapolation": 8161,
      "LinearDiscriminantAnalysis": 8162,
      "_hot": 8163,
      "_hist": 8164,
      "pred_decision": 8165,
      "percentiles": 8166,
      "column_names": 8167,
      "store_true": 8168,
      "everything": 8169,
      "interaction_only": 8170,
      "Calibration": 8171,
      "circles": 8172,
      "############################################################################": 8173,
      "efanie": 8174,
      "inverted_cdf": 8175,
      "237": 8176,
      "CP": 8177,
      "Cannot": 8178,
      "Find": 8179,
      "Score": 8180,
      "bidden": 8181,
      "dar": 8182,
      "k1": 8183,
      "orn": 8184,
      "rewriting": 8185,
      "imension": 8186,
      "unneeded": 8187,
      "covery": 8188,
      "n_test": 8189,
      "ify_": 8190,
      "\");": 8191,
      "test_parametrize": 8192,
      "favor": 8193,
      "transf": 8194,
      "per_": 8195,
      "call_on": 8196,
      "housing": 8197,
      "suptitle": 8198,
      "funcarg": 8199,
      "dirname": 8200,
      "Mode": 8201,
      "issuecomment": 8202,
      "{}),": 8203,
      "detailed": 8204,
      "es_of": 8205,
      "produce": 8206,
      "initialized": 8207,
      "maybe": 8208,
      "effects": 8209,
      "Generic": 8210,
      "compil": 8211,
      "rinkage": 8212,
      "Authentic": 8213,
      "Specify": 8214,
      "Writer": 8215,
      "check_sample_weight_equivalence": 8216,
      "confid": 8217,
      "n_bins_non": 8218,
      "robenius": 8219,
      ")``.": 8220,
      "220": 8221,
      "_new": 8222,
      "_mode": 8223,
      "family": 8224,
      "landeg": 8225,
      "little": 8226,
      "ming": 8227,
      "anob": 8228,
      "impro": 8229,
      "etimes": 8230,
      "fortran": 8231,
      "top_": 8232,
      "unchanged": 8233,
      "expose": 8234,
      "liac": 8235,
      "olation": 8236,
      "_tri": 8237,
      "metric_name": 8238,
      "116": 8239,
      "norm_squared": 8240,
      "257": 8241,
      "bdd": 8242,
      "allow_un": 8243,
      "plot_method": 8244,
      "picked": 8245,
      "stdin": 8246,
      "naive": 8247,
      "naive_": 8248,
      "execute": 8249,
      "MarkDecorator": 8250,
      "Vari": 8251,
      "imilarity": 8252,
      "SOME": 8253,
      "lazy": 8254,
      "_routing_enabled": 8255,
      "degrees_of": 8256,
      "halanob": 8257,
      "keep_empty_features": 8258,
      "degrees_of_freedom": 8259,
      ".+": 8260,
      "0b": 8261,
      "164": 8262,
      "Hug": 8263,
      "LA": 8264,
      "Pur": 8265,
      "Sty": 8266,
      "Spline": 8267,
      "_random": 8268,
      "_color": 8269,
      "_estimator_": 8270,
      "_consistency": 8271,
      "cid": 8272,
      "fbeta": 8273,
      "rho": 8274,
      "rnd": 8275,
      "spatial": 8276,
      "uan": 8277,
      "zed": 8278,
      "represents": 8279,
      "alex": 8280,
      "quality": 8281,
      "\")])": 8282,
      "auc_": 8283,
      "boun": 8284,
      "dicts": 8285,
      "106": 8286,
      "item2": 8287,
      "warning_message": 8288,
      "**{": 8289,
      "alphas_": 8290,
      "registr": 8291,
      "level3": 8292,
      "999": 8293,
      "metadata_request": 8294,
      "offset_": 8295,
      "Entry": 8296,
      "Collection": 8297,
      "Dependency": 8298,
      "labels_pred": 8299,
      "with_mean": 8300,
      "DictVectorizer": 8301,
      "OSIT": 8302,
      "response_model_exclude_none": 8303,
      "_is_numpy_namespace": 8304,
      "percentile_rank": 8305,
      "upper_bound": 8306,
      "MetricWarning": 8307,
      "BaggingClassifier": 8308,
      "rfecv": 8309,
      "circle": 8310,
      "pastebin": 8311,
      "CollectReport": 8312,
      "tweaks": 8313,
      "UndefinedMetricWarning": 8314,
      "compliant": 8315,
      "techni": 8316,
      "GLM": 8317,
      "faulthand": 8318,
      "Digest": 8319,
      "Truncated": 8320,
      "Act": 8321,
      "Full": 8322,
      "F401": 8323,
      "_plugin": 8324,
      "diss": 8325,
      "gues": 8326,
      "nb": 8327,
      "sus": 8328,
      "tin": 8329,
      "wsg": 8330,
      "reli": 8331,
      "declar": 8332,
      "codeError": 8333,
      "item1": 8334,
      "multi_output": 8335,
      "Parse": 8336,
      "betatim": 8337,
      "autosummary": 8338,
      "178": 8339,
      "inipath": 8340,
      "]]:": 8341,
      "pytest_collect": 8342,
      "mkdocs": 8343,
      "store_": 8344,
      "ExtraTree": 8345,
      "=====================================================": 8346,
      "blas_functions": 8347,
      "v_measure": 8348,
      "escaped": 8349,
      "verbose_feature_names_out": 8350,
      "testsuite": 8351,
      "Broken": 8352,
      "Previously": 8353,
      "permutation_importance": 8354,
      "/\"": 8355,
      "236": 8356,
      "EL": 8357,
      "PER": 8358,
      "Wrap": 8359,
      "XA": 8360,
      "_logging": 8361,
      "cupy": 8362,
      "ders": 8363,
      "gcv_": 8364,
      "ii": 8365,
      "ij": 8366,
      "yles": 8367,
      "andre": 8368,
      "n_rows": 8369,
      "()))": 8370,
      "test_log_": 8371,
      "y_xp": 8372,
      "material": 8373,
      "``(": 8374,
      "labeling": 8375,
      "error_msg": 8376,
      "four": 8377,
      "_weights_": 8378,
      "runk": 8379,
      "_median": 8380,
      "validations": 8381,
      "fit_request": 8382,
      "alias_and_validation_alias": 8383,
      "158": 8384,
      "set_fit_request": 8385,
      "RandomProjection": 8386,
      "190": 8387,
      "307": 8388,
      "308": 8389,
      "cry": 8390,
      "_topic": 8391,
      "wraps": 8392,
      "]]))": 8393,
      "from_parent": 8394,
      "boundaries": 8395,
      "bbbb": 8396,
      "OneClassSVM": 8397,
      "replacement": 8398,
      "General": 8399,
      "mean_variance_": 8400,
      "duplicated": 8401,
      "Orthogonal": 8402,
      "validator": 8403,
      "Types": 8404,
      "OAuth2Password": 8405,
      "TerminalWriter": 8406,
      "url_prefix": 8407,
      "residual": 8408,
      "RandomizedSearchCV": 8409,
      "DistanceMetric": 8410,
      "cardinal": 8411,
      "KEY": 8412,
      "SGDOne": 8413,
      "4e": 8414,
      "_pandas": 8415,
      "cer": 8416,
      "hau": 8417,
      "ihook": 8418,
      "yellow": 8419,
      "rector": 8420,
      "declare": 8421,
      "testpaths": 8422,
      "n_nodes": 8423,
      "apan": 8424,
      "doctest_": 8425,
      "paren": 8426,
      "marg": 8427,
      "agl": 8428,
      "])],": 8429,
      "_sto": 8430,
      "_incr": 8431,
      "addres": 8432,
      "interpret": 8433,
      "interpolation": 8434,
      "_mon": 8435,
      "backport": 8436,
      "json_schema": 8437,
      "_rel": 8438,
      "libr": 8439,
      "support_": 8440,
      "...\")": 8441,
      "score_params": 8442,
      "Stefanie": 8443,
      "159": 8444,
      "ordered_": 8445,
      "167": 8446,
      "_frequent": 8447,
      "192": 8448,
      "195": 8449,
      "_db": 8450,
      "completen": 8451,
      "optimized": 8452,
      "ficient": 8453,
      "Neg": 8454,
      "Setup": 8455,
      "guillaume": 8456,
      "recall_score": 8457,
      "conditions": 8458,
      "Varoquaux": 8459,
      "scoped": 8460,
      "finished": 8461,
      "Distances": 8462,
      "LIL": 8463,
      "precision_recall_curve": 8464,
      "n_outputs_": 8465,
      "sleep": 8466,
      "SGDOneClassSVM": 8467,
      "\"^": 8468,
      "313": 8469,
      "DIR": 8470,
      "Pin": 8471,
      "Samples": 8472,
      "Zero": 8473,
      "_3": 8474,
      "bash": 8475,
      "c6": 8476,
      "c9": 8477,
      "frag": 8478,
      "gd": 8479,
      "hast": 8480,
      "}`": 8481,
      "iness": 8482,
      "erre": 8483,
      "unsupervised": 8484,
      "prevalence": 8485,
      "()[": 8486,
      "svlandeg": 8487,
      "printing": 8488,
      "157": 8489,
      "_best": 8490,
      "changed_": 8491,
      "allowing": 8492,
      "joint": 8493,
      "best_index": 8494,
      "OneOf": 8495,
      "dropped": 8496,
      "Director": 8497,
      "treated": 8498,
      "removes": 8499,
      "D_METRICS": 8500,
      "default_factory": 8501,
      "_categorical_": 8502,
      "IsOneOf": 8503,
      "working_memory": 8504,
      "easy": 8505,
      "receiv": 8506,
      "Buil": 8507,
      "minimize": 8508,
      "Senger": 8509,
      "illustr": 8510,
      "connected_components": 8511,
      "Nicolas": 8512,
      "Description": 8513,
      "Filter": 8514,
      "view_": 8515,
      "Style": 8516,
      "((\"": 8517,
      "Final": 8518,
      "lsqr": 8519,
      "uuid": 8520,
      "reen": 8521,
      "omar": 8522,
      "uppe": 8523,
      "marked": 8524,
      "prin": 8525,
      "minimal": 8526,
      "makefile": 8527,
      "Testing": 8528,
      "correlation": 8529,
      "cycl": 8530,
      "acher": 8531,
      "FILE": 8532,
      "finity": 8533,
      "most_frequent": 8534,
      "FastICA": 8535,
      "splitlines": 8536,
      "Checking": 8537,
      "HGB": 8538,
      "attribute_": 8539,
      "ANC": 8540,
      "min_cluster_size": 8541,
      "load_diabetes": 8542,
      "displayed": 8543,
      "consistent_length": 8544,
      "calibrated": 8545,
      "current_app": 8546,
      "Helper": 8547,
      "TargetEncoder": 8548,
      "row_norms": 8549,
      "gbrt": 8550,
      "haust": 8551,
      "217": 8552,
      "Evalu": 8553,
      "Tag": 8554,
      "_encode": 8555,
      "care": 8556,
      "ever": 8557,
      "recursive": 8558,
      "is_scalar": 8559,
      "()])": 8560,
      "test_query_": 8561,
      "becomes": 8562,
      "paces": 8563,
      "white": 8564,
      "_inertia": 8565,
      "news": 8566,
      "jsonl": 8567,
      "Look": 8568,
      "documented": 8569,
      "ModelField": 8570,
      "download_": 8571,
      "highest": 8572,
      "spherical": 8573,
      "cutdir": 8574,
      "SGI": 8575,
      "follows": 8576,
      "tend_": 8577,
      "records": 8578,
      "digest": 8579,
      "Reporter": 8580,
      "quee": 8581,
      "non_negative": 8582,
      "rendering": 8583,
      "_csr_": 8584,
      "rbm": 8585,
      "OOB": 8586,
      "OutlierFactor": 8587,
      "LocalOutlierFactor": 8588,
      "Modified": 8589,
      "_TREES": 8590,
      "frontend_": 8591,
      "faulthandler": 8592,
      "TruncatedSVD": 8593,
      "5b": 8594,
      "900": 8595,
      "Ben": 8596,
      "Cur": 8597,
      "Japan": 8598,
      "MSE": 8599,
      "_items": 8600,
      "bgmm": 8601,
      "h1": 8602,
      "kd_tree": 8603,
      "sp_": 8604,
      "squee": 8605,
      "tfidf": 8606,
      "uhi": 8607,
      "vin": 8608,
      "yticks": 8609,
      "reuse": 8610,
      "rewritten": 8611,
      "algo": 8612,
      "_small": 8613,
      "_super": 8614,
      "mag": 8615,
      "abort": 8616,
      "feed": 8617,
      "test_method": 8618,
      "]);": 8619,
      "github_": 8620,
      "maxsize": 8621,
      "instanti": 8622,
      "equality": 8623,
      "_prox": 8624,
      "_family": 8625,
      "_path_": 8626,
      "187": 8627,
      "proxy_": 8628,
      "774": 8629,
      "Doctest": 8630,
      ".\".": 8631,
      "smans": 8632,
      "Prepare": 8633,
      "raw_values": 8634,
      "target_colors": 8635,
      "requirement": 8636,
      "categories_": 8637,
      "larsmans": 8638,
      "mitsuhi": 8639,
      "cookiejar": 8640,
      "commands": 8641,
      "aboost": 8642,
      "adapt": 8643,
      "_series": 8644,
      "interaction_cst": 8645,
      "_single_": 8646,
      "potentially": 8647,
      "Related": 8648,
      "Confusion": 8649,
      "belong": 8650,
      "IsotonicRegression": 8651,
      "BytesIO": 8652,
      "access_token": 8653,
      "SplineTransformer": 8654,
      "mean_variance_axis": 8655,
      "mitsuhiko": 8656,
      "212": 8657,
      "238": 8658,
      "Kmin": 8659,
      "a6": 8660,
      "c0": 8661,
      "eo": 8662,
      "irect": 8663,
      "spline": 8664,
      "xfailed": 8665,
      "reposit": 8666,
      "encies": 8667,
      "stage": 8668,
      "pecially": 8669,
      "_sync": 8670,
      "digit": 8671,
      "preview": 8672,
      "getLogger": 8673,
      "test_function": 8674,
      "X_fit": 8675,
      "They": 8676,
      "iterative": 8677,
      "routed": 8678,
      "Classification": 8679,
      "check_consistent_length": 8680,
      "undle": 8681,
      "flak": 8682,
      "level2": 8683,
      "196": 8684,
      "rowser": 8685,
      "[[-": 8686,
      "abspath": 8687,
      "_shutdown": 8688,
      "possib": 8689,
      "Passive": 8690,
      "_by_name": 8691,
      "oob_": 8692,
      "Cleanup": 8693,
      "ArgKmin": 8694,
      "coo_container": 8695,
      "covar_type": 8696,
      "[::-": 8697,
      "_redirects": 8698,
      "Memory": 8699,
      "HasMethods": 8700,
      "kddcup99": 8701,
      "halanobis": 8702,
      "Negative": 8703,
      "'`.": 8704,
      "233": 8705,
      "AX": 8706,
      "Car": 8707,
      "Ht": 8708,
      "[~": 8709,
      "_N": 8710,
      "_64": 8711,
      "_right": 8712,
      "_cls": 8713,
      "david": 8714,
      "frequency": 8715,
      "kan": 8716,
      "ped_": 8717,
      "especially": 8718,
      "arget_": 8719,
      "alone": 8720,
      "edoc": 8721,
      "pex": 8722,
      "elap": 8723,
      "qui": 8724,
      "umbus": 8725,
      "meant": 8726,
      "boisberranger": 8727,
      "_target_": 8728,
      "Cls": 8729,
      "ays": 8730,
      "base_estimator": 8731,
      "linear_": 8732,
      "346": 8733,
      "_limit": 8734,
      "response_values": 8735,
      "target_type": 8736,
      "locations": 8737,
      "Encoding": 8738,
      "broad": 8739,
      "semantic": 8740,
      "Defaults": 8741,
      "modified_": 8742,
      "executable": 8743,
      "speedup": 8744,
      "cosmetic": 8745,
      "IndexError": 8746,
      "use_legacy_": 8747,
      "NOTSET": 8748,
      "_dims": 8749,
      "corrcoef": 8750,
      "curio": 8751,
      "Pair": 8752,
      "glouppe": 8753,
      "check_sample_weight_equivalence_on": 8754,
      "Pursuit": 8755,
      "cardinality": 8756,
      "Directory": 8757,
      "264": 8758,
      "218": 8759,
      "312": 8760,
      "AST": 8761,
      "BLAS": 8762,
      "Density": 8763,
      "Omar": 8764,
      "QU": 8765,
      "Salman": 8766,
      "]+": 8767,
      "_C": 8768,
      "eigh": 8769,
      "friedman": 8770,
      "nz": 8771,
      "tell": 8772,
      "thetic": 8773,
      "ques": 8774,
      "prep": 8775,
      "prefit": 8776,
      "ollow": 8777,
      "_stuff": 8778,
      "_stream": 8779,
      "get_config": 8780,
      "Internal": 8781,
      "worth": 8782,
      "refine": 8783,
      "mean_test_score": 8784,
      "univariate": 8785,
      "bler": 8786,
      "BaseExc": 8787,
      "PytestPluginManager": 8788,
      "confcutdir": 8789,
      "classification_report": 8790,
      "405": 8791,
      "archive": 8792,
      "280": 8793,
      "custom_": 8794,
      "encodings": 8795,
      "LEA": 8796,
      "task_name": 8797,
      "trial": 8798,
      "MetaEstimator": 8799,
      "uniform_average": 8800,
      "IterEstimator": 8801,
      "lru": 8802,
      "unique_labels": 8803,
      "sequential": 8804,
      "MaxIterEstimator": 8805,
      "simpler": 8806,
      "label_ranking_": 8807,
      "ExtraTrees": 8808,
      "_of_": 8809,
      "_items__": 8810,
      "warn_msg": 8811,
      "MLPClassifier": 8812,
      "statistics": 8813,
      "Made": 8814,
      "━━━━━━━━━━━━━━━━": 8815,
      "engine": 8816,
      "momentum": 8817,
      "use_legacy_attributes": 8818,
      "BIN": 8819,
      "Vis": 8820,
      "_setup": 8821,
      "_width": 8822,
      "fri": 8823,
      "hpk": 8824,
      "kpca": 8825,
      "rules": 8826,
      "salman": 8827,
      "retry": 8828,
      "enne": 8829,
      "divide": 8830,
      "exhaust": 8831,
      "doe": 8832,
      "trans1": 8833,
      "aren": 8834,
      "items__": 8835,
      "sour": 8836,
      "_cd": 8837,
      "_two": 8838,
      "array_type": 8839,
      "matrix_": 8840,
      "computes": 8841,
      "reg_": 8842,
      "score_name": 8843,
      "score_support": 8844,
      "preds": 8845,
      "flash": 8846,
      "devices": 8847,
      "PytestWarning": 8848,
      "conftests": 8849,
      "capfd": 8850,
      "return_std": 8851,
      "260": 8852,
      "_startup": 8853,
      "percentage": 8854,
      "_timeout": 8855,
      "no_response_model": 8856,
      "MetadataRequest": 8857,
      "sentence": 8858,
      "definitions": 8859,
      "empty_like": 8860,
      "Settings": 8861,
      "PARAM": 8862,
      "COO_CONTAINERS": 8863,
      "precision_recall_fscore_support": 8864,
      "distinct": 8865,
      "ERNAL": 8866,
      "').": 8867,
      "(?": 8868,
      "216": 8869,
      "DI": 8870,
      "Del": 8871,
      "DTYPE": 8872,
      "LON": 8873,
      "LIT": 8874,
      "Vt": 8875,
      "Wer": 8876,
      "_an": 8877,
      "_pass": 8878,
      "_hook": 8879,
      "_filter": 8880,
      "mb": 8881,
      "py36": 8882,
      "ceil": 8883,
      "_sho": 8884,
      "elimin": 8885,
      "maps": 8886,
      "kew": 8887,
      "test_client": 8888,
      "heuri": 8889,
      "delenv": 8890,
      "d_fast": 8891,
      "errorhandler": 8892,
      "foot": 8893,
      "make_f": 8894,
      "mental_": 8895,
      "_idf": 8896,
      "fixturenames": 8897,
      "[:]": 8898,
      "modname": 8899,
      "assert_allclose_dense_sparse": 8900,
      "applications": 8901,
      "successful": 8902,
      "gitignore": 8903,
      "graphy": 8904,
      "seek": 8905,
      "developer": 8906,
      "terminal_": 8907,
      "=====================================================================================": 8908,
      "LOAD": 8909,
      "csr_matrix": 8910,
      "pickled": 8911,
      "shrinking": 8912,
      "impurity_": 8913,
      "serialize": 8914,
      "last_mean": 8915,
      "cursor": 8916,
      "Aggressive": 8917,
      "Hashing": 8918,
      "_fit_task_begin": 8919,
      "empirical": 8920,
      "Currently": 8921,
      "Optim": 8922,
      "FOREST_": 8923,
      "Neighborhood": 8924,
      "hastie_": 8925,
      "pexpect": 8926,
      "Werkzeug": 8927,
      "make_friedman": 8928,
      "210": 8929,
      "345": 8930,
      "Aff": 8931,
      "Gut": 8932,
      "KNN": 8933,
      "Mak": 8934,
      "WI": 8935,
      "[])": 8936,
      "_pattern": 8937,
      "_deviance": 8938,
      "b0": 8939,
      "browser": 8940,
      "fx": 8941,
      "nn_": 8942,
      "nnd": 8943,
      "nav": 8944,
      "recogn": 8945,
      "ary_": 8946,
      "imon": 8947,
      "utility": 8948,
      "ulate": 8949,
      "n_folds": 8950,
      "Repeated": 8951,
      "s_to": 8952,
      "mari": 8953,
      "rant": 8954,
      "iterator": 8955,
      "_cach": 8956,
      "init_": 8957,
      "bottom": 8958,
      "320": 8959,
      "subclasses": 8960,
      "printed": 8961,
      "kwds": 8962,
      "STY": 8963,
      "scorer_": 8964,
      "idea": 8965,
      "501": 8966,
      "_to_split": 8967,
      "visual_": 8968,
      "implementations": 8969,
      "plot_chance_level": 8970,
      "imputer_": 8971,
      "DES": 8972,
      "vider": 8973,
      "read_items_": 8974,
      "_only_": 8975,
      "contributors": 8976,
      "scaler_incr": 8977,
      "NaNs": 8978,
      "averaged": 8979,
      "bookmark": 8980,
      "_indent": 8981,
      "SOL": 8982,
      "MultinomialNB": 8983,
      "threshold_": 8984,
      "lower_bound": 8985,
      "naive_bayes": 8986,
      "nndsvd": 8987,
      "visual_block": 8988,
      "OF": 8989,
      "Same": 8990,
      "Tun": 8991,
      "T_template_": 8992,
      "_load": 8993,
      "_body_": 8994,
      "cript": 8995,
      "han": 8996,
      "spect": 8997,
      "uro": 8998,
      "uint64": 8999,
      "rely": 9000,
      "reject": 9001,
      "demo": 9002,
      "cture": 9003,
      "pylint": 9004,
      "_sig": 9005,
      "comma": 9006,
      "expi": 9007,
      "assertions": 9008,
      "proced": 9009,
      "pens": 9010,
      "bound_": 9011,
      "ssl": 9012,
      "appcontext": 9013,
      "Insensitive": 9014,
      "addfinalizer": 9015,
      "achie": 9016,
      "subdir": 9017,
      "taking": 9018,
      "overfitting": 9019,
      "url_r": 9020,
      "Checks": 9021,
      "Common": 9022,
      "make_column_transformer": 9023,
      "applicable": 9024,
      "errno": 9025,
      "reprcrash": 9026,
      "compare_": 9027,
      "collecting": 9028,
      "response_model_by_alias": 9029,
      "smallest": 9030,
      "dotenv": 9031,
      "preference": 9032,
      "casting": 9033,
      "PLUG": 9034,
      "Percent": 9035,
      "looks": 9036,
      "assumption": 9037,
      "ICE": 9038,
      "Abstract": 9039,
      "drawn": 9040,
      "Opus": 9041,
      "Graphical": 9042,
      "_large": 9043,
      "averaged_inverted_cdf": 9044,
      "_weighted_percentile": 9045,
      "ccp_alpha": 9046,
      "Authenticate": 9047,
      "wsgi": 9048,
      "url_rule": 9049,
      "315": 9050,
      "DB": 9051,
      "Jan": 9052,
      "Kenne": 9053,
      "VI": 9054,
      "VER": 9055,
      "_import": 9056,
      "bits": 9057,
      "css": 9058,
      "har": 9059,
      "k2": 9060,
      "mal": 9061,
      "pcg": 9062,
      "six": 9063,
      "ws_": 9064,
      "{{": 9065,
      "anity": 9066,
      "stability": 9067,
      "oman": 9068,
      "test_skip": 9069,
      "entity": 9070,
      "_so": 9071,
      "_show": 9072,
      "get_scorer": 9073,
      "poch": 9074,
      "fact": 9075,
      "agram": 9076,
      "_insensitive": 9077,
      "error_": 9078,
      "n_samples_se": 9079,
      "axes_": 9080,
      "file_size": 9081,
      "_csc": 9082,
      "newline": 9083,
      "Explicit": 9084,
      "subcontext": 9085,
      "grads": 9086,
      "closing": 9087,
      "formatted": 9088,
      "_propag": 9089,
      "fine": 9090,
      "creation": 9091,
      "188": 9092,
      "Box": 9093,
      "precisions": 9094,
      "_duration": 9095,
      "callback0": 9096,
      "{}\".": 9097,
      "SEC": 9098,
      "Dataset": 9099,
      "_shuffle": 9100,
      "chardet": 9101,
      "Func": 9102,
      "repeating": 9103,
      "Minimum": 9104,
      "multilabel_": 9105,
      "balanced_": 9106,
      "executed": 9107,
      "calculation": 9108,
      "Isomap": 9109,
      "preserv": 9110,
      "Cluster": 9111,
      "johndoe": 9112,
      "pytest_runtest_log": 9113,
      "KBest": 9114,
      "empirical_": 9115,
      "Removes": 9116,
      "shuffling": 9117,
      "RobustScaler": 9118,
      "n_bins_non_missing": 9119,
      "Cursor": 9120,
      "squeeze": 9121,
      "Kenneth": 9122,
      ")\"\"\"": 9123,
      "213": 9124,
      "Az": 9125,
      "Flo": 9126,
      "Just": 9127,
      "Mis": 9128,
      "_column": 9129,
      "vend": 9130,
      "}],": 9131,
      "──": 9132,
      "isot": 9133,
      "unraisable": 9134,
      "igen": 9135,
      "();": 9136,
      "usable": 9137,
      "test_path": 9138,
      "test_path_": 9139,
      "test_security_": 9140,
      "setAttribute": 9141,
      "paired_": 9142,
      "sklearn_": 9143,
      "``)": 9144,
      "X_res_": 9145,
      "Cov": 9146,
      "_inv": 9147,
      "Indi": 9148,
      "var_": 9149,
      "init_params": 9150,
      "acamil": 9151,
      "325": 9152,
      "ENSE": 9153,
      "overlap": 9154,
      "cluster_std": 9155,
      "modcol": 9156,
      "confusing": 9157,
      "encounter": 9158,
      "allow_": 9159,
      "ensor": 9160,
      "myself": 9161,
      "Prefix": 9162,
      "min_resources": 9163,
      "connections": 9164,
      "Quadratic": 9165,
      "Doe": 9166,
      "ACK": 9167,
      "Splitter": 9168,
      "UNC": 9169,
      "clearer": 9170,
      "_matching": 9171,
      "slsa": 9172,
      "appears": 9173,
      "surface": 9174,
      "BayesianRidge": 9175,
      "INTERNAL": 9176,
      "'``:": 9177,
      "WWW": 9178,
[...]
